{
  "version": "1.0",
  "truncation": null,
  "padding": null,
  "added_tokens": [
    {
      "id": 0,
      "content": "[PAD]",
      "single_word": false,
      "lstrip": false,
      "rstrip": false,
      "normalized": false,
      "special": true
    },
    {
      "id": 1,
      "content": "[UNK]",
      "single_word": false,
      "lstrip": false,
      "rstrip": false,
      "normalized": false,
      "special": true
    },
    {
      "id": 2,
      "content": "[CLS]",
      "single_word": false,
      "lstrip": false,
      "rstrip": false,
      "normalized": false,
      "special": true
    },
    {
      "id": 3,
      "content": "[SEP]",
      "single_word": false,
      "lstrip": false,
      "rstrip": false,
      "normalized": false,
      "special": true
    },
    {
      "id": 4,
      "content": "[MASK]",
      "single_word": false,
      "lstrip": false,
      "rstrip": false,
      "normalized": false,
      "special": true
    }
  ],
  "normalizer": {
    "type": "BertNormalizer",
    "clean_text": true,
    "handle_chinese_chars": true,
    "strip_accents": null,
    "lowercase": false
  },
  "pre_tokenizer": {
    "type": "BertPreTokenizer"
  },
  "post_processor": {
    "type": "TemplateProcessing",
    "single": [
      {
        "SpecialToken": {
          "id": "[CLS]",
          "type_id": 0
        }
      },
      {
        "Sequence": {
          "id": "A",
          "type_id": 0
        }
      },
      {
        "SpecialToken": {
          "id": "[SEP]",
          "type_id": 0
        }
      }
    ],
    "pair": [
      {
        "SpecialToken": {
          "id": "[CLS]",
          "type_id": 0
        }
      },
      {
        "Sequence": {
          "id": "A",
          "type_id": 0
        }
      },
      {
        "SpecialToken": {
          "id": "[SEP]",
          "type_id": 0
        }
      },
      {
        "Sequence": {
          "id": "B",
          "type_id": 1
        }
      },
      {
        "SpecialToken": {
          "id": "[SEP]",
          "type_id": 1
        }
      }
    ],
    "special_tokens": {
      "[CLS]": {
        "id": "[CLS]",
        "ids": [
          2
        ],
        "tokens": [
          "[CLS]"
        ]
      },
      "[SEP]": {
        "id": "[SEP]",
        "ids": [
          3
        ],
        "tokens": [
          "[SEP]"
        ]
      }
    }
  },
  "decoder": {
    "type": "WordPiece",
    "prefix": "##",
    "cleanup": true
  },
  "model": {
    "type": "WordPiece",
    "unk_token": "[UNK]",
    "continuing_subword_prefix": "##",
    "max_input_chars_per_word": 100,
    "vocab": {
      "[PAD]": 0,
      "[UNK]": 1,
      "[CLS]": 2,
      "[SEP]": 3,
      "[MASK]": 4,
      ",": 5,
      ".": 6,
      "và": 7,
      "của": 8,
      "các": 9,
      "có": 10,
      "là": 11,
      "trong": 12,
      "cho": 13,
      "được": 14,
      "với": 15,
      "đã": 16,
      "người": 17,
      "không": 18,
      "công": 19,
      "một": 20,
      "[UNUSED_252]": 21,
      "(": 22,
      ")": 23,
      "để": 24,
      "những": 25,
      "tại": 26,
      "về": 27,
      "năm": 28,
      "này": 29,
      "-": 30,
      "đến": 31,
      "động": 32,
      "hiện": 33,
      "ở": 34,
      "Nam": 35,
      "đồng": 36,
      "trên": 37,
      "nước": 38,
      "ra": 39,
      "việc": 40,
      "từ": 41,
      ":": 42,
      "khi": 43,
      "đầu": 44,
      "quan": 45,
      "định": 46,
      "đó": 47,
      "Việt": 48,
      "vào": 49,
      "“": 50,
      "”": 51,
      "thể": 52,
      "nhiều": 53,
      "số": 54,
      "thành": 55,
      "sẽ": 56,
      "bị": 57,
      "làm": 58,
      "cũng": 59,
      "ngày": 60,
      "sự": 61,
      "nhà": 62,
      "dân": 63,
      "nhân": 64,
      "gia": 65,
      ";": 66,
      "cơ": 67,
      "như": 68,
      "chính": 69,
      "hàng": 70,
      "thực": 71,
      "trường": 72,
      "phát": 73,
      "vụ": 74,
      "hội": 75,
      "học": 76,
      "thông": 77,
      "hợp": 78,
      "chỉ": 79,
      "chức": 80,
      "sản": 81,
      "hành": 82,
      "phải": 83,
      "tế": 84,
      "thời": 85,
      "lại": 86,
      "nghiệp": 87,
      "cao": 88,
      "ông": 89,
      "tác": 90,
      "lý": 91,
      "nhất": 92,
      "viên": 93,
      "hơn": 94,
      "theo": 95,
      "triển": 96,
      "giá": 97,
      "sinh": 98,
      "điều": 99,
      "trình": 100,
      "tỉnh": 101,
      "tư": 102,
      "đối": 103,
      "##.": 104,
      "mới": 105,
      "bộ": 106,
      "dụng": 107,
      "cấp": 108,
      "Quốc": 109,
      "án": 110,
      "tiếp": 111,
      "qua": 112,
      "còn": 113,
      "đang": 114,
      "xuất": 115,
      "lượng": 116,
      "tăng": 117,
      "Bộ": 118,
      "kinh": 119,
      "dự": 120,
      "xã": 121,
      "Công": 122,
      "biết": 123,
      "Trung": 124,
      "kết": 125,
      "nhận": 126,
      "hình": 127,
      "...": 128,
      "doanh": 129,
      "sau": 130,
      "đi": 131,
      "điểm": 132,
      "tin": 133,
      "quốc": 134,
      "giải": 135,
      "##-": 136,
      "đề": 137,
      "toàn": 138,
      "chủ": 139,
      "thế": 140,
      "bảo": 141,
      "an": 142,
      "địa": 143,
      "cùng": 144,
      "năng": 145,
      "lực": 146,
      "nhưng": 147,
      "con": 148,
      "tổ": 149,
      "2": 150,
      "thì": 151,
      "cầu": 152,
      "đường": 153,
      "báo": 154,
      "do": 155,
      "xe": 156,
      "quy": 157,
      "Hà": 158,
      "phương": 159,
      "trước": 160,
      "tôi": 161,
      "mà": 162,
      "thị": 163,
      "tạo": 164,
      "dựng": 165,
      "nay": 166,
      "thống": 167,
      "cả": 168,
      "khu": 169,
      "quả": 170,
      "rất": 171,
      "giao": 172,
      "pháp": 173,
      "đạo": 174,
      "tới": 175,
      "tâm": 176,
      "Nguyễn": 177,
      "thi": 178,
      "lên": 179,
      "quyết": 180,
      "tháng": 181,
      "tình": 182,
      "thu": 183,
      "hoá": 184,
      "vực": 185,
      "tra": 186,
      "xây": 187,
      "Theo": 188,
      "nên": 189,
      "hoạt": 190,
      "tiêu": 191,
      "giới": 192,
      "khai": 193,
      "/": 194,
      "Mỹ": 195,
      "độ": 196,
      "lớn": 197,
      "cuộc": 198,
      "vị": 199,
      "cách": 200,
      "tục": 201,
      "gian": 202,
      "sử": 203,
      "đây": 204,
      "khách": 205,
      "hai": 206,
      "phòng": 207,
      "trọng": 208,
      "hệ": 209,
      "hiệu": 210,
      "tập": 211,
      "1": 212,
      "phần": 213,
      "tham": 214,
      "đất": 215,
      "đại": 216,
      "chất": 217,
      "trị": 218,
      "tiền": 219,
      "3": 220,
      "mạnh": 221,
      "liên": 222,
      "Trong": 223,
      "cần": 224,
      "tài": 225,
      "trưởng": 226,
      "tự": 227,
      "vẫn": 228,
      "nhiệm": 229,
      "khác": 230,
      "thương": 231,
      "thức": 232,
      "mình": 233,
      "phẩm": 234,
      "vì": 235,
      "bản": 236,
      "nói": 237,
      "ty": 238,
      "ý": 239,
      "sở": 240,
      "Nội": 241,
      "chưa": 242,
      "nghị": 243,
      "huyện": 244,
      "bệnh": 245,
      "tích": 246,
      "Văn": 247,
      "triệu": 248,
      "điện": 249,
      "tỷ": 250,
      "mặt": 251,
      "đổi": 252,
      "lần": 253,
      "quyền": 254,
      "phố": 255,
      "nhiên": 256,
      "thủ": 257,
      "trung": 258,
      "chế": 259,
      "bằng": 260,
      "ảnh": 261,
      "đoàn": 262,
      "rằng": 263,
      "máy": 264,
      "diễn": 265,
      "anh": 266,
      "Chính": 267,
      "đội": 268,
      "văn": 269,
      "đơn": 270,
      "sách": 271,
      "kiến": 272,
      "dịch": 273,
      "tịch": 274,
      "Chủ": 275,
      "bán": 276,
      "##́": 277,
      "##n": 278,
      "đưa": 279,
      "TP": 280,
      "tính": 281,
      "sát": 282,
      "thường": 283,
      "chiến": 284,
      "ngành": 285,
      "biệt": 286,
      "lịch": 287,
      "giảm": 288,
      "##i": 289,
      "kiểm": 290,
      "yêu": 291,
      "vấn": 292,
      "Tổng": 293,
      "##̣": 294,
      "phạm": 295,
      "tốt": 296,
      "sống": 297,
      "bạn": 298,
      "phủ": 299,
      "Bình": 300,
      "Thủ": 301,
      "cáo": 302,
      "thấy": 303,
      "chí": 304,
      "ứng": 305,
      "chuyển": 306,
      "chúng": 307,
      "ban": 308,
      "gần": 309,
      "hoàn": 310,
      "quản": 311,
      "đánh": 312,
      "nghệ": 313,
      "vi": 314,
      "diện": 315,
      "xử": 316,
      "trở": 317,
      "bàn": 318,
      "đạt": 319,
      "Anh": 320,
      "tướng": 321,
      "kỳ": 322,
      "trợ": 323,
      "khoảng": 324,
      "khó": 325,
      "thiết": 326,
      "đình": 327,
      "đấu": 328,
      "quá": 329,
      "em": 330,
      "mức": 331,
      "biểu": 332,
      "cứu": 333,
      "nào": 334,
      "lợi": 335,
      "vừa": 336,
      "luật": 337,
      "truyền": 338,
      "thứ": 339,
      "hộ": 340,
      "lập": 341,
      "trẻ": 342,
      "tuổi": 343,
      "##ng": 344,
      "hay": 345,
      "du": 346,
      "đặc": 347,
      "hoạch": 348,
      "hướng": 349,
      "giáo": 350,
      "5": 351,
      "tượng": 352,
      "4": 353,
      "gây": 354,
      "nhập": 355,
      "bố": 356,
      "loại": 357,
      "ngoài": 358,
      "giữa": 359,
      "vệ": 360,
      "tiến": 361,
      "bất": 362,
      "sáng": 363,
      "Đại": 364,
      "Hội": 365,
      "cảnh": 366,
      "bà": 367,
      "bắt": 368,
      "Các": 369,
      "kiện": 370,
      "dẫn": 371,
      "Thanh": 372,
      "giúp": 373,
      "ăn": 374,
      "trí": 375,
      "đảm": 376,
      "sĩ": 377,
      "cá": 378,
      "giờ": 379,
      "quân": 380,
      "bình": 381,
      "mua": 382,
      "Nhà": 383,
      "phục": 384,
      "sức": 385,
      "nguyên": 386,
      "họ": 387,
      "chuyên": 388,
      "dùng": 389,
      "kế": 390,
      "Tuy": 391,
      "đều": 392,
      "UBND": 393,
      "Phó": 394,
      "nguồn": 395,
      "tổng": 396,
      "thuộc": 397,
      "biến": 398,
      "vùng": 399,
      "tiên": 400,
      "nội": 401,
      "mạng": 402,
      "biển": 403,
      "–": 404,
      "thêm": 405,
      "bên": 406,
      "giữ": 407,
      "Ban": 408,
      "mang": 409,
      "lãnh": 410,
      "nơi": 411,
      "thư": 412,
      "vậy": 413,
      "hoặc": 414,
      "nông": 415,
      "Minh": 416,
      "?": 417,
      "Đảng": 418,
      "chung": 419,
      "phí": 420,
      "Ông": 421,
      "trực": 422,
      "vận": 423,
      "chương": 424,
      "ta": 425,
      "vốn": 426,
      "khiến": 427,
      "trang": 428,
      "tranh": 429,
      "thanh": 430,
      "tìm": 431,
      "10": 432,
      "ký": 433,
      "góp": 434,
      "mục": 435,
      "hạn": 436,
      "chi": 437,
      "từng": 438,
      "cảm": 439,
      "rõ": 440,
      "cán": 441,
      "Bắc": 442,
      "viện": 443,
      "##t": 444,
      "xác": 445,
      "Hải": 446,
      "cô": 447,
      "lao": 448,
      "Thị": 449,
      "chứng": 450,
      "Đông": 451,
      "chuẩn": 452,
      "nâng": 453,
      "hỗ": 454,
      "##̀": 455,
      "minh": 456,
      "phụ": 457,
      "liệu": 458,
      "6": 459,
      "trận": 460,
      "thuật": 461,
      "tử": 462,
      "đô": 463,
      "bay": 464,
      "so": 465,
      "Sau": 466,
      "Sơn": 467,
      "bao": 468,
      "nhau": 469,
      "tay": 470,
      "An": 471,
      "##c": 472,
      "hưởng": 473,
      "Quảng": 474,
      "muốn": 475,
      "hết": 476,
      "nữ": 477,
      "khẩu": 478,
      "nạn": 479,
      "vật": 480,
      "phân": 481,
      "mở": 482,
      "lời": 483,
      "thay": 484,
      "nhằm": 485,
      "khí": 486,
      "Thành": 487,
      "bóng": 488,
      "dục": 489,
      "cổ": 490,
      "Đồng": 491,
      "cạnh": 492,
      "mỗi": 493,
      "luận": 494,
      "đủ": 495,
      "nếu": 496,
      "chia": 497,
      "bỏ": 498,
      "USD": 499,
      "dài": 500,
      "chống": 501,
      "phối": 502,
      "tên": 503,
      "##m": 504,
      "trách": 505,
      "thân": 506,
      "xét": 507,
      "đoạn": 508,
      "danh": 509,
      "môi": 510,
      "gặp": 511,
      "Đức": 512,
      "Nga": 513,
      "tiếng": 514,
      "đẩy": 515,
      "mô": 516,
      "khăn": 517,
      "xảy": 518,
      "chọn": 519,
      "ngân": 520,
      "gì": 521,
      "uỷ": 522,
      "chị": 523,
      "đúng": 524,
      "trả": 525,
      "tuyển": 526,
      "mại": 527,
      "tàu": 528,
      "trạng": 529,
      "nghiệm": 530,
      "xem": 531,
      "tiết": 532,
      "áp": 533,
      "rộng": 534,
      "cực": 535,
      "Một": 536,
      "Long": 537,
      "đốc": 538,
      "đá": 539,
      "Thái": 540,
      "đóng": 541,
      "dung": 542,
      "lĩnh": 543,
      "đặt": 544,
      "yếu": 545,
      "Ngày": 546,
      "đẹp": 547,
      "phía": 548,
      "khả": 549,
      "cung": 550,
      "mọi": 551,
      "'": 552,
      "tố": 553,
      "gồm": 554,
      "giả": 555,
      "ngay": 556,
      "2018": 557,
      "sân": 558,
      "cuối": 559,
      "Trần": 560,
      "cường": 561,
      "Hồ": 562,
      "chiếc": 563,
      "phép": 564,
      "nhỏ": 565,
      "tương": 566,
      "tuyến": 567,
      "luôn": 568,
      "mất": 569,
      "cố": 570,
      "sẻ": 571,
      "lưu": 572,
      "cây": 573,
      "mẹ": 574,
      "thuận": 575,
      "7": 576,
      "tinh": 577,
      "lúc": 578,
      "sơ": 579,
      "kỹ": 580,
      "Hoàng": 581,
      "khoa": 582,
      "sắc": 583,
      "ương": 584,
      "Dương": 585,
      "Những": 586,
      "đời": 587,
      "thôn": 588,
      "hồ": 589,
      "nhanh": 590,
      "đảo": 591,
      "Đây": 592,
      "di": 593,
      "nhóm": 594,
      "tuyên": 595,
      "rồi": 596,
      "Xuân": 597,
      "Sở": 598,
      "Nhật": 599,
      "Liên": 600,
      "kể": 601,
      "phong": 602,
      "tấn": 603,
      "sao": 604,
      "giám": 605,
      "tải": 606,
      "sang": 607,
      "Trường": 608,
      "Lê": 609,
      "cửa": 610,
      "bài": 611,
      "huy": 612,
      "tối": 613,
      "càng": 614,
      "lễ": 615,
      "hậu": 616,
      "trò": 617,
      "nghĩa": 618,
      "xuống": 619,
      "Tại": 620,
      "cư": 621,
      "trái": 622,
      "Tây": 623,
      "Uỷ": 624,
      "8": 625,
      "dù": 626,
      "cộng": 627,
      "hữu": 628,
      "Trước": 629,
      "nữa": 630,
      "hoà": 631,
      "cử": 632,
      "bởi": 633,
      "đăng": 634,
      "Ninh": 635,
      "thắng": 636,
      "ít": 637,
      "Với": 638,
      "T": 639,
      "đa": 640,
      "thiện": 641,
      "kỷ": 642,
      "chuyện": 643,
      "độc": 644,
      "##h": 645,
      "##̉": 646,
      "vô": 647,
      "nghiên": 648,
      "Bản": 649,
      "chơi": 650,
      "vàng": 651,
      "cụ": 652,
      "hỏi": 653,
      "soát": 654,
      "căn": 655,
      "thuốc": 656,
      "thuế": 657,
      "ghi": 658,
      "nghiêm": 659,
      "đáng": 660,
      "mắt": 661,
      "khẳng": 662,
      "gọi": 663,
      "nuôi": 664,
      "tất": 665,
      "Người": 666,
      "lệ": 667,
      "trao": 668,
      "chiều": 669,
      "hồi": 670,
      "vòng": 671,
      "##&": 672,
      "quận": 673,
      "toán": 674,
      "hại": 675,
      "nguy": 676,
      "châu": 677,
      "Phú": 678,
      "thần": 679,
      "cứ": 680,
      "dưới": 681,
      "Hoà": 682,
      "Tôi": 683,
      "thấp": 684,
      "mưa": 685,
      "nền": 686,
      "thảo": 687,
      "nổi": 688,
      "thúc": 689,
      "ngoại": 690,
      "y": 691,
      "cải": 692,
      "##u": 693,
      "Hiện": 694,
      "tội": 695,
      "9": 696,
      "khởi": 697,
      "ô": 698,
      "họp": 699,
      "Ngoài": 700,
      "thiếu": 701,
      "Điều": 702,
      "biên": 703,
      "Từ": 704,
      "Khi": 705,
      "ca": 706,
      "tuần": 707,
      "riêng": 708,
      "đào": 709,
      "cái": 710,
      "thích": 711,
      "suất": 712,
      "lấy": 713,
      "phản": 714,
      "bổ": 715,
      "nghề": 716,
      "bước": 717,
      "vọng": 718,
      "ninh": 719,
      "tưởng": 720,
      "khá": 721,
      "2017": 722,
      "phá": 723,
      "Lan": 724,
      "tiện": 725,
      "Bí": 726,
      "câu": 727,
      "đầy": 728,
      "phim": 729,
      "hoa": 730,
      "phù": 731,
      "2019": 732,
      "môn": 733,
      "mùa": 734,
      "hạ": 735,
      "Không": 736,
      "tầng": 737,
      "gửi": 738,
      "tai": 739,
      "phiên": 740,
      "Đà": 741,
      "Luật": 742,
      "thoại": 743,
      "niên": 744,
      "lòng": 745,
      "thăm": 746,
      "hiểm": 747,
      "phường": 748,
      "buổi": 749,
      "vai": 750,
      "lớp": 751,
      "phạt": 752,
      "C": 753,
      "Ngọc": 754,
      "20": 755,
      "Quang": 756,
      "vững": 757,
      "Nghị": 758,
      "chấp": 759,
      "sâu": 760,
      "vượt": 761,
      "Giám": 762,
      "trì": 763,
      "tín": 764,
      "Chí": 765,
      "chồng": 766,
      "Giang": 767,
      "hút": 768,
      "hiểu": 769,
      "chân": 770,
      "lộ": 771,
      "Phát": 772,
      "Nếu": 773,
      "khoẻ": 774,
      "Á": 775,
      "Dự": 776,
      "ba": 777,
      "xúc": 778,
      "Tổ": 779,
      "đứng": 780,
      "Phòng": 781,
      "Hàn": 782,
      "12": 783,
      "khoản": 784,
      "Có": 785,
      "đàn": 786,
      "HCM": 787,
      "chạy": 788,
      "gái": 789,
      "nằm": 790,
      "ổn": 791,
      "hôm": 792,
      "thuỷ": 793,
      "chết": 794,
      "thẩm": 795,
      "chỉnh": 796,
      "giai": 797,
      "ưu": 798,
      "dành": 799,
      "vợ": 800,
      "nghỉ": 801,
      "mẫu": 802,
      "đông": 803,
      "đáp": 804,
      "dầu": 805,
      "dưỡng": 806,
      "xuyên": 807,
      "nhìn": 808,
      "ai": 809,
      "Tiên": 810,
      "sông": 811,
      "2016": 812,
      "dễ": 813,
      "thí": 814,
      "thác": 815,
      "miền": 816,
      "Năm": 817,
      "duy": 818,
      "sớm": 819,
      "chiếm": 820,
      "bé": 821,
      "chú": 822,
      "Báo": 823,
      "đêm": 824,
      "đồ": 825,
      "thưởng": 826,
      "Nguyên": 827,
      "phóng": 828,
      "Nẵng": 829,
      "lo": 830,
      "Phạm": 831,
      "30": 832,
      "tô": 833,
      "nhu": 834,
      "mong": 835,
      "tộc": 836,
      "chịu": 837,
      "Để": 838,
      "khỏi": 839,
      "vui": 840,
      "Tân": 841,
      "m": 842,
      "Thông": 843,
      "sư": 844,
      "Việc": 845,
      "màu": 846,
      "trồng": 847,
      "kéo": 848,
      "nhạc": 849,
      "Bên": 850,
      "nối": 851,
      "nó": 852,
      "tốc": 853,
      "phút": 854,
      "Kỳ": 855,
      "Đoàn": 856,
      "Hoa": 857,
      "giấy": 858,
      "cháy": 859,
      "Kim": 860,
      "Chỉ": 861,
      "biện": 862,
      "Cục": 863,
      "Nhưng": 864,
      "xa": 865,
      "nặng": 866,
      "Pháp": 867,
      "xin": 868,
      "chữa": 869,
      "Vũ": 870,
      "ấy": 871,
      "vũ": 872,
      "##p": 873,
      "A": 874,
      "Tài": 875,
      "Triều": 876,
      "vay": 877,
      "thật": 878,
      "Tết": 879,
      "Vì": 880,
      "ích": 881,
      "15": 882,
      "nghèo": 883,
      "sai": 884,
      "kịp": 885,
      "khắc": 886,
      "Yên": 887,
      "U": 888,
      "Nhiều": 889,
      "phê": 890,
      "bác": 891,
      "##a": 892,
      "nợ": 893,
      "quý": 894,
      "Hồng": 895,
      "Bà": 896,
      "Y": 897,
      "lương": 898,
      "nhấn": 899,
      "lửa": 900,
      "Do": 901,
      "xanh": 902,
      "sửa": 903,
      "Bảo": 904,
      "tặng": 905,
      "bày": 906,
      "Tập": 907,
      "lâu": 908,
      "hạng": 909,
      "khám": 910,
      "đảng": 911,
      "Thế": 912,
      "Châu": 913,
      "##vn": 914,
      "Thương": 915,
      "11": 916,
      "quán": 917,
      "gắn": 918,
      "tái": 919,
      "tỉ": 920,
      "phiếu": 921,
      "Nhân": 922,
      "chuyến": 923,
      "cục": 924,
      "nóng": 925,
      "trương": 926,
      "nêu": 927,
      "vài": 928,
      "ngờ": 929,
      "nhiễm": 930,
      "Ngân": 931,
      "!": 932,
      "Chúng": 933,
      "2015": 934,
      "tránh": 935,
      "sung": 936,
      "trú": 937,
      "Về": 938,
      "giống": 939,
      "Đến": 940,
      "rừng": 941,
      "kiếm": 942,
      "dấu": 943,
      "chăm": 944,
      "thiệt": 945,
      "lược": 946,
      "Phúc": 947,
      "tạm": 948,
      "Thu": 949,
      "mắc": 950,
      "đón": 951,
      "##s": 952,
      "Đối": 953,
      "mối": 954,
      "toà": 955,
      "thải": 956,
      "buộc": 957,
      "nghĩ": 958,
      "thuê": 959,
      "nhiệt": 960,
      "dòng": 961,
      "chặt": 962,
      "ngôi": 963,
      "Hiệp": 964,
      "niệm": 965,
      "bầu": 966,
      "bức": 967,
      "to": 968,
      "Cơ": 969,
      "cháu": 970,
      "uống": 971,
      "âm": 972,
      "Kinh": 973,
      "xếp": 974,
      "Phương": 975,
      "thất": 976,
      "dịp": 977,
      "nỗ": 978,
      "lựa": 979,
      "nghi": 980,
      "khoá": 981,
      "lượt": 982,
      "tầm": 983,
      "HLV": 984,
      "nghe": 985,
      "cận": 986,
      "đôi": 987,
      "Thường": 988,
      "cấu": 989,
      "Trưởng": 990,
      "nam": 991,
      "song": 992,
      "thoả": 993,
      "Âu": 994,
      "tỏ": 995,
      "cập": 996,
      "liệt": 997,
      "thái": 998,
      "viết": 999,
      "Hoá": 1000,
      "Trump": 1001,
      "ma": 1002,
      "tức": 1003,
      "##2": 1004,
      "Tuấn": 1005,
      "thao": 1006,
      "Tỉnh": 1007,
      "Khu": 1008,
      "Ngoại": 1009,
      "trai": 1010,
      "Lào": 1011,
      "chỗ": 1012,
      "chắc": 1013,
      "giành": 1014,
      "tồn": 1015,
      "trời": 1016,
      "thiên": 1017,
      "Bệnh": 1018,
      "khối": 1019,
      "máu": 1020,
      "cam": 1021,
      "luyện": 1022,
      "sẵn": 1023,
      "B": 1024,
      "ước": 1025,
      "Đặc": 1026,
      "Chi": 1027,
      "Hai": 1028,
      "hạt": 1029,
      "kê": 1030,
      "Đình": 1031,
      "hải": 1032,
      "bảng": 1033,
      "lái": 1034,
      "dư": 1035,
      "hãng": 1036,
      "loạt": 1037,
      "H": 1038,
      "Tiến": 1039,
      "vong": 1040,
      "áo": 1041,
      "##nh": 1042,
      "đau": 1043,
      "bền": 1044,
      "đua": 1045,
      "bão": 1046,
      "Hùng": 1047,
      "sạch": 1048,
      "ánh": 1049,
      "đỏ": 1050,
      "tắc": 1051,
      "khuyến": 1052,
      "hát": 1053,
      "siêu": 1054,
      "Thứ": 1055,
      "rác": 1056,
      "rút": 1057,
      "dạy": 1058,
      "100": 1059,
      "phổ": 1060,
      "kích": 1061,
      "trải": 1062,
      "Dũng": 1063,
      "binh": 1064,
      "Cảnh": 1065,
      "Mai": 1066,
      "thử": 1067,
      "chợ": 1068,
      "dạng": 1069,
      "DN": 1070,
      "quê": 1071,
      "làng": 1072,
      "thụ": 1073,
      "đổ": 1074,
      "đột": 1075,
      "khủng": 1076,
      "quanh": 1077,
      "nhớ": 1078,
      "ASEAN": 1079,
      "tuý": 1080,
      "núi": 1081,
      "ủng": 1082,
      "thẳng": 1083,
      "Hưng": 1084,
      "khảo": 1085,
      "sỹ": 1086,
      "Vĩnh": 1087,
      "Ba": 1088,
      "Quân": 1089,
      "ngăn": 1090,
      "đàm": 1091,
      "gió": 1092,
      "coi": 1093,
      "Như": 1094,
      "hoạ": 1095,
      "cân": 1096,
      "nhờ": 1097,
      "ấn": 1098,
      "Xây": 1099,
      "lạc": 1100,
      "sóng": 1101,
      "Thời": 1102,
      "lệnh": 1103,
      "sắp": 1104,
      "Linh": 1105,
      "da": 1106,
      "Viện": 1107,
      "phán": 1108,
      "Lâm": 1109,
      "Chương": 1110,
      "nguyện": 1111,
      "Biên": 1112,
      "Gia": 1113,
      "sàng": 1114,
      "sứ": 1115,
      "Cũng": 1116,
      "chóng": 1117,
      "trào": 1118,
      "thiệu": 1119,
      "Dân": 1120,
      "Khánh": 1121,
      "đích": 1122,
      "tận": 1123,
      "Vụ": 1124,
      "18": 1125,
      "chờ": 1126,
      "lãi": 1127,
      "lai": 1128,
      "50": 1129,
      "phó": 1130,
      "16": 1131,
      "may": 1132,
      "quay": 1133,
      "cầm": 1134,
      "truy": 1135,
      "dừng": 1136,
      "trụ": 1137,
      "S": 1138,
      "Hạ": 1139,
      "Giáo": 1140,
      "đâu": 1141,
      "hấp": 1142,
      "dây": 1143,
      "Cụ": 1144,
      "mật": 1145,
      "mừng": 1146,
      "sóc": 1147,
      "mặc": 1148,
      "duyệt": 1149,
      "lá": 1150,
      "cắt": 1151,
      "Đó": 1152,
      "+": 1153,
      "thầu": 1154,
      "gốc": 1155,
      "dõi": 1156,
      "THPT": 1157,
      "cánh": 1158,
      "suy": 1159,
      "tiểu": 1160,
      "13": 1161,
      "Cùng": 1162,
      "Vietnam": 1163,
      "quần": 1164,
      "tờ": 1165,
      "ngũ": 1166,
      "Kết": 1167,
      "Nghệ": 1168,
      "##y": 1169,
      "can": 1170,
      "Thuận": 1171,
      "Và": 1172,
      "cấm": 1173,
      "khán": 1174,
      "M": 1175,
      "14": 1176,
      "suốt": 1177,
      "2014": 1178,
      "nổ": 1179,
      "Cup": 1180,
      "thừa": 1181,
      "niềm": 1182,
      "Còn": 1183,
      "trăm": 1184,
      "thoát": 1185,
      "màn": 1186,
      "đọc": 1187,
      "Nông": 1188,
      "Lý": 1189,
      "Hương": 1190,
      "vé": 1191,
      "bồi": 1192,
      "Quyết": 1193,
      "chứa": 1194,
      "lũ": 1195,
      "Đầu": 1196,
      "mẽ": 1197,
      "thầy": 1198,
      "Du": 1199,
      "bãi": 1200,
      "nghìn": 1201,
      "quà": 1202,
      "xung": 1203,
      "Phan": 1204,
      "Điện": 1205,
      "tạp": 1206,
      "ngại": 1207,
      "trấn": 1208,
      "Cần": 1209,
      "##T": 1210,
      "thậm": 1211,
      "tri": 1212,
      "Huế": 1213,
      "Thuỷ": 1214,
      "Độ": 1215,
      "Syria": 1216,
      "V": 1217,
      "quen": 1218,
      "hương": 1219,
      "kém": 1220,
      "cũ": 1221,
      "địch": 1222,
      "Giải": 1223,
      "bánh": 1224,
      "dữ": 1225,
      "thịt": 1226,
      "xăng": 1227,
      "nắm": 1228,
      "Sáng": 1229,
      "Thực": 1230,
      "món": 1231,
      "bào": 1232,
      "quảng": 1233,
      "km": 1234,
      "Phong": 1235,
      "phúc": 1236,
      "phi": 1237,
      "cha": 1238,
      "tôn": 1239,
      "Lễ": 1240,
      "trật": 1241,
      "La": 1242,
      "vẻ": 1243,
      "ha": 1244,
      "giác": 1245,
      "miễn": 1246,
      "lưới": 1247,
      "chứ": 1248,
      "đương": 1249,
      "tiềm": 1250,
      "Qua": 1251,
      "Quản": 1252,
      "mã": 1253,
      "chậm": 1254,
      "nhẹ": 1255,
      "chở": 1256,
      "Hàng": 1257,
      "Quy": 1258,
      "thú": 1259,
      "2020": 1260,
      "dần": 1261,
      "Trên": 1262,
      "Vân": 1263,
      "chục": 1264,
      "kêu": 1265,
      "Ngay": 1266,
      "trắng": 1267,
      "in": 1268,
      "nộp": 1269,
      "sắt": 1270,
      "nắng": 1271,
      "Khoa": 1272,
      "Sự": 1273,
      "chặn": 1274,
      "thách": 1275,
      "Sa": 1276,
      "đợt": 1277,
      "Đào": 1278,
      "chẽ": 1279,
      "ngồi": 1280,
      "phận": 1281,
      "##VN": 1282,
      "rơi": 1283,
      "Trọng": 1284,
      "hài": 1285,
      "Tag": 1286,
      "17": 1287,
      "Định": 1288,
      "Tư": 1289,
      "tù": 1290,
      "mời": 1291,
      "lan": 1292,
      "giản": 1293,
      "Đài": 1294,
      "chắn": 1295,
      "bờ": 1296,
      "Cô": 1297,
      "##g": 1298,
      "Trang": 1299,
      "nhắc": 1300,
      "GD": 1301,
      "lỗi": 1302,
      "sữa": 1303,
      "khẩn": 1304,
      "thẻ": 1305,
      "bối": 1306,
      "N": 1307,
      "bật": 1308,
      "gương": 1309,
      "40": 1310,
      "hiệp": 1311,
      "Bác": 1312,
      "tuyệt": 1313,
      "Cộng": 1314,
      "thiểu": 1315,
      "huấn": 1316,
      "Giao": 1317,
      "Cao": 1318,
      "ngắn": 1319,
      "tim": 1320,
      "25": 1321,
      "SN": 1322,
      "rà": 1323,
      "24": 1324,
      "##N": 1325,
      "Đội": 1326,
      "Nha": 1327,
      "bạc": 1328,
      "xấu": 1329,
      "nhật": 1330,
      "0": 1331,
      "gỡ": 1332,
      "Được": 1333,
      "lối": 1334,
      "##o": 1335,
      "Thiên": 1336,
      "bại": 1337,
      "đỉnh": 1338,
      "huyết": 1339,
      "khúc": 1340,
      "ngừng": 1341,
      "liền": 1342,
      "Biển": 1343,
      "Huy": 1344,
      "hôn": 1345,
      "ĐT": 1346,
      "ĐH": 1347,
      "đẳng": 1348,
      "đỡ": 1349,
      "dứt": 1350,
      "ngủ": 1351,
      "lục": 1352,
      "19": 1353,
      "xu": 1354,
      "rau": 1355,
      "khích": 1356,
      "hy": 1357,
      "kim": 1358,
      "ràng": 1359,
      "mộ": 1360,
      "mạc": 1361,
      "lạnh": 1362,
      "phấn": 1363,
      "Iran": 1364,
      "Dù": 1365,
      "D": 1366,
      "tuy": 1367,
      "trạm": 1368,
      "quỹ": 1369,
      "ung": 1370,
      "kg": 1371,
      "kênh": 1372,
      "đòi": 1373,
      "khổ": 1374,
      "Kiểm": 1375,
      "chẳng": 1376,
      "chụp": 1377,
      "linh": 1378,
      "Thượng": 1379,
      "mưu": 1380,
      "lẽ": 1381,
      "hầu": 1382,
      "giàu": 1383,
      "đê": 1384,
      "hè": 1385,
      "Lao": 1386,
      "kiệm": 1387,
      "Vinh": 1388,
      "chấm": 1389,
      "the": 1390,
      "tệ": 1391,
      "nhũng": 1392,
      "21": 1393,
      "đem": 1394,
      "tấm": 1395,
      "súng": 1396,
      "lợn": 1397,
      "Tuyên": 1398,
      "Thắng": 1399,
      "bí": 1400,
      "TNHH": 1401,
      "cơn": 1402,
      "VOV": 1403,
      "Đề": 1404,
      "ngư": 1405,
      "Toàn": 1406,
      "Phước": 1407,
      "ơn": 1408,
      "đức": 1409,
      "huỷ": 1410,
      "lắng": 1411,
      "gói": 1412,
      "Hữu": 1413,
      "đen": 1414,
      "Chiến": 1415,
      "sạn": 1416,
      "rượu": 1417,
      "Trương": 1418,
      "trưng": 1419,
      "phức": 1420,
      "2013": 1421,
      "lâm": 1422,
      "EU": 1423,
      "Mô": 1424,
      "băng": 1425,
      "lạ": 1426,
      "kháng": 1427,
      "kính": 1428,
      "bậc": 1429,
      "đãi": 1430,
      "Vương": 1431,
      "HĐND": 1432,
      "trúc": 1433,
      "ngập": 1434,
      "mềm": 1435,
      "thua": 1436,
      "thơ": 1437,
      "Bùi": 1438,
      "Truyền": 1439,
      "Số": 1440,
      "giật": 1441,
      "buôn": 1442,
      "Giá": 1443,
      "gắng": 1444,
      "dương": 1445,
      "22": 1446,
      "mơ": 1447,
      "Phi": 1448,
      "sợ": 1449,
      "Kế": 1450,
      "cảng": 1451,
      "thuyền": 1452,
      "chiếu": 1453,
      "khắp": 1454,
      "dựa": 1455,
      "kịch": 1456,
      "Võ": 1457,
      "lẫn": 1458,
      "tươi": 1459,
      "đai": 1460,
      "200": 1461,
      "Cường": 1462,
      "đoạt": 1463,
      "kẻ": 1464,
      "ngang": 1465,
      "bang": 1466,
      "đoán": 1467,
      "##3": 1468,
      "Cai": 1469,
      "rời": 1470,
      "lẻ": 1471,
      "cựu": 1472,
      "chào": 1473,
      "rào": 1474,
      "Mặt": 1475,
      "giảng": 1476,
      "xong": 1477,
      "Học": 1478,
      "nhuận": 1479,
      "lúa": 1480,
      "khuôn": 1481,
      "Cuộc": 1482,
      "The": 1483,
      "dàng": 1484,
      "ngôn": 1485,
      "trừ": 1486,
      "Mặc": 1487,
      "doạ": 1488,
      "ngược": 1489,
      "hạnh": 1490,
      "thai": 1491,
      "Malaysia": 1492,
      "trúng": 1493,
      "hơi": 1494,
      "World": 1495,
      "##23": 1496,
      "chữ": 1497,
      "ngàn": 1498,
      "lắp": 1499,
      "bắn": 1500,
      "gấp": 1501,
      "hào": 1502,
      "Singapore": 1503,
      "pha": 1504,
      "xâm": 1505,
      "đe": 1506,
      "khiển": 1507,
      "toả": 1508,
      "CLB": 1509,
      "Lương": 1510,
      "bè": 1511,
      "mạch": 1512,
      "Duy": 1513,
      "23": 1514,
      "mái": 1515,
      "VN": 1516,
      "K": 1517,
      "BHXH": 1518,
      "Chiều": 1519,
      "60": 1520,
      "chấn": 1521,
      "tôm": 1522,
      "Lộc": 1523,
      "Đỗ": 1524,
      "tá": 1525,
      "căng": 1526,
      "chăn": 1527,
      "đám": 1528,
      "ngữ": 1529,
      "Hậu": 1530,
      "thập": 1531,
      "Họ": 1532,
      "xế": 1533,
      "Ngãi": 1534,
      "vinh": 1535,
      "Bài": 1536,
      "L": 1537,
      "uy": 1538,
      "mê": 1539,
      "Thọ": 1540,
      "khen": 1541,
      "mấy": 1542,
      "Park": 1543,
      "Toà": 1544,
      "Hợp": 1545,
      "TPHCM": 1546,
      "Cầu": 1547,
      "gỗ": 1548,
      "nửa": 1549,
      "Facebook": 1550,
      "hùng": 1551,
      "cà": 1552,
      "mỹ": 1553,
      "P": 1554,
      "cuốn": 1555,
      "Mỗi": 1556,
      "Diễn": 1557,
      "kiên": 1558,
      "túc": 1559,
      "Nghĩa": 1560,
      "hiến": 1561,
      "Tiền": 1562,
      "chúc": 1563,
      "gà": 1564,
      "thôi": 1565,
      "Cách": 1566,
      "vườn": 1567,
      "Tiếp": 1568,
      "Thơ": 1569,
      "thận": 1570,
      "nét": 1571,
      "500": 1572,
      "tháo": 1573,
      "Sài": 1574,
      "xứ": 1575,
      "đứa": 1576,
      "Chị": 1577,
      "Tĩnh": 1578,
      "non": 1579,
      "Đa": 1580,
      "##1": 1581,
      "Indonesia": 1582,
      "thượng": 1583,
      "đèn": 1584,
      "trại": 1585,
      "lãm": 1586,
      "iPhone": 1587,
      "Bạn": 1588,
      "Lai": 1589,
      "hô": 1590,
      "TTXVN": 1591,
      "trữ": 1592,
      "Đặng": 1593,
      "Trà": 1594,
      "trùng": 1595,
      "Đường": 1596,
      "bạch": 1597,
      "GTVT": 1598,
      "ấm": 1599,
      "gạo": 1600,
      "yên": 1601,
      "Con": 1602,
      "hoàng": 1603,
      "Campuchia": 1604,
      "Gòn": 1605,
      "PV": 1606,
      "kiểu": 1607,
      "khoán": 1608,
      "đáo": 1609,
      "đợi": 1610,
      "Lãnh": 1611,
      "ép": 1612,
      "túi": 1613,
      "cướp": 1614,
      "khung": 1615,
      "New": 1616,
      "giỏi": 1617,
      "kèm": 1618,
      "giết": 1619,
      "CP": 1620,
      "chạm": 1621,
      "đài": 1622,
      "hãy": 1623,
      "Đinh": 1624,
      "Tâm": 1625,
      "sàn": 1626,
      "Doanh": 1627,
      "Philippines": 1628,
      "100%": 1629,
      "Cổ": 1630,
      "Ngô": 1631,
      "thổ": 1632,
      "thuyết": 1633,
      "thù": 1634,
      "tảng": 1635,
      "lành": 1636,
      "dao": 1637,
      "Mạnh": 1638,
      "chốt": 1639,
      "bò": 1640,
      "chuỗi": 1641,
      "tán": 1642,
      "phú": 1643,
      "vỡ": 1644,
      "ro": 1645,
      "VTV": 1646,
      "ly": 1647,
      "Tàu": 1648,
      "Bằng": 1649,
      "I": 1650,
      "##A": 1651,
      "Bởi": 1652,
      "ẩm": 1653,
      "lô": 1654,
      "sổ": 1655,
      "Hồi": 1656,
      "2012": 1657,
      "cười": 1658,
      "Thổ": 1659,
      "Tình": 1660,
      "giam": 1661,
      "kho": 1662,
      "bom": 1663,
      "Donald": 1664,
      "triệt": 1665,
      "rủi": 1666,
      "cát": 1667,
      "tụ": 1668,
      "Hơn": 1669,
      "sốt": 1670,
      "Tất": 1671,
      "chảy": 1672,
      "huống": 1673,
      "trộm": 1674,
      "ẩn": 1675,
      "huynh": 1676,
      "dông": 1677,
      "bạo": 1678,
      "khấu": 1679,
      "góc": 1680,
      "ven": 1681,
      "Apple": 1682,
      "X": 1683,
      "s": 1684,
      "đền": 1685,
      "trích": 1686,
      "hẹn": 1687,
      "of": 1688,
      "cản": 1689,
      "tung": 1690,
      "buồn": 1691,
      "tang": 1692,
      "mãi": 1693,
      "300": 1694,
      "Tháng": 1695,
      "City": 1696,
      "lừa": 1697,
      "Hành": 1698,
      "ngã": 1699,
      "League": 1700,
      "##e": 1701,
      "rối": 1702,
      "Thể": 1703,
      "vướng": 1704,
      "viêm": 1705,
      "cặp": 1706,
      "cậu": 1707,
      "lở": 1708,
      "đập": 1709,
      "hứng": 1710,
      "già": 1711,
      "Tấn": 1712,
      "bê": 1713,
      "G": 1714,
      "nhi": 1715,
      "Quỹ": 1716,
      "tật": 1717,
      "70": 1718,
      "Lực": 1719,
      "Nhĩ": 1720,
      "khô": 1721,
      "E": 1722,
      "tràn": 1723,
      "xóm": 1724,
      "khiếu": 1725,
      "sắm": 1726,
      "than": 1727,
      "mắn": 1728,
      "cương": 1729,
      "vết": 1730,
      "nhánh": 1731,
      "TAND": 1732,
      "nỗi": 1733,
      "29": 1734,
      "nhựa": 1735,
      "28": 1736,
      "hỏng": 1737,
      "đâm": 1738,
      "26": 1739,
      "ngoái": 1740,
      "cột": 1741,
      "tiêm": 1742,
      "Nhất": 1743,
      "27": 1744,
      "trốn": 1745,
      "thang": 1746,
      "hề": 1747,
      "hư": 1748,
      "Huỳnh": 1749,
      "đuổi": 1750,
      "Cà": 1751,
      "loạn": 1752,
      "dinh": 1753,
      "mai": 1754,
      "Chánh": 1755,
      "xoá": 1756,
      "ngụ": 1757,
      "Australia": 1758,
      "Kiên": 1759,
      "Cái": 1760,
      "Chung": 1761,
      "Hoàn": 1762,
      "Quan": 1763,
      "thép": 1764,
      "Xã": 1765,
      "dày": 1766,
      "dụ": 1767,
      "đốt": 1768,
      "Vào": 1769,
      "lỗ": 1770,
      "Tùng": 1771,
      "lắm": 1772,
      "Tin": 1773,
      "hoảng": 1774,
      "Nhiệt": 1775,
      "Tăng": 1776,
      "bến": 1777,
      "TS": 1778,
      "đạn": 1779,
      "đậu": 1780,
      "nhãn": 1781,
      "##CP": 1782,
      "rẻ": 1783,
      "Di": 1784,
      "ống": 1785,
      "hiếm": 1786,
      "loài": 1787,
      "ghế": 1788,
      "hoang": 1789,
      "##C": 1790,
      "thờ": 1791,
      "cưới": 1792,
      "lậu": 1793,
      "thảm": 1794,
      "chút": 1795,
      "Man": 1796,
      "Lúc": 1797,
      "Cả": 1798,
      "phẫu": 1799,
      "quên": 1800,
      "Nai": 1801,
      "video": 1802,
      "trục": 1803,
      "điển": 1804,
      "tổn": 1805,
      "tiễn": 1806,
      "cờ": 1807,
      "ga": 1808,
      "ngọt": 1809,
      "Em": 1810,
      "dị": 1811,
      "ngừa": 1812,
      "hưu": 1813,
      "Loan": 1814,
      "bữa": 1815,
      "mực": 1816,
      "tông": 1817,
      "Hình": 1818,
      "hoả": 1819,
      "Thừa": 1820,
      "dậy": 1821,
      "não": 1822,
      "xuân": 1823,
      "Lợi": 1824,
      "Tiểu": 1825,
      "hoan": 1826,
      "pháo": 1827,
      "tuỳ": 1828,
      "hồng": 1829,
      "Quỳnh": 1830,
      "Sinh": 1831,
      "canh": 1832,
      "Quý": 1833,
      "IS": 1834,
      "cú": 1835,
      "and": 1836,
      "Thảo": 1837,
      "Bến": 1838,
      "##km": 1839,
      "ngưỡng": 1840,
      "Tính": 1841,
      "bia": 1842,
      "củng": 1843,
      "Riêng": 1844,
      "Tham": 1845,
      "treo": 1846,
      "xả": 1847,
      "cơm": 1848,
      "Song": 1849,
      "##5": 1850,
      "2011": 1851,
      "bó": 1852,
      "bá": 1853,
      "tàng": 1854,
      "Thư": 1855,
      "35": 1856,
      "ngầm": 1857,
      "tả": 1858,
      "mát": 1859,
      "Hệ": 1860,
      "lãng": 1861,
      "Ukraine": 1862,
      "Trịnh": 1863,
      "sôi": 1864,
      "Là": 1865,
      "nhượng": 1866,
      "Cẩm": 1867,
      "lọc": 1868,
      "Thống": 1869,
      "TTO": 1870,
      "Mới": 1871,
      "1.000": 1872,
      "Real": 1873,
      "chùa": 1874,
      "xứng": 1875,
      "cốt": 1876,
      "Trị": 1877,
      "Tam": 1878,
      "bám": 1879,
      "##G": 1880,
      "Điểm": 1881,
      "hứa": 1882,
      "Giấy": 1883,
      "sạt": 1884,
      "tường": 1885,
      "bù": 1886,
      "Đắk": 1887,
      "Phượng": 1888,
      "vươn": 1889,
      "hộp": 1890,
      "Cho": 1891,
      "trông": 1892,
      "đươ": 1893,
      "hâm": 1894,
      "dược": 1895,
      "dâm": 1896,
      "tuân": 1897,
      "ngon": 1898,
      "nhắn": 1899,
      "ngạch": 1900,
      "mây": 1901,
      "mũi": 1902,
      "Ai": 1903,
      "kia": 1904,
      "dáng": 1905,
      "mỏ": 1906,
      "lít": 1907,
      "viễn": 1908,
      "ôtô": 1909,
      "thở": 1910,
      "làn": 1911,
      "ruột": 1912,
      "điệp": 1913,
      "F": 1914,
      "gìn": 1915,
      "kín": 1916,
      "chủng": 1917,
      "khuyết": 1918,
      "tiếc": 1919,
      "khâu": 1920,
      "Washington": 1921,
      "thả": 1922,
      "BHYT": 1923,
      "xưa": 1924,
      "đo": 1925,
      "xương": 1926,
      "Lịch": 1927,
      "ví": 1928,
      "bốc": 1929,
      "camera": 1930,
      "Samsung": 1931,
      "tuệ": 1932,
      "tóc": 1933,
      "diệt": 1934,
      "thùng": 1935,
      "vơ": 1936,
      "Dung": 1937,
      "##30": 1938,
      "Lưu": 1939,
      "mệnh": 1940,
      "đậm": 1941,
      "trừng": 1942,
      "Nữ": 1943,
      "Hoài": 1944,
      "hẳn": 1945,
      "##ĐT": 1946,
      "Hằng": 1947,
      "nhiêu": 1948,
      "đỗ": 1949,
      "Hang": 1950,
      "miệng": 1951,
      "niêm": 1952,
      "Tô": 1953,
      "mầm": 1954,
      "45": 1955,
      "mốc": 1956,
      "chối": 1957,
      "##bây": 1958,
      "Vậy": 1959,
      "mso": 1960,
      "khoáng": 1961,
      "Canada": 1962,
      "vĩ": 1963,
      "sút": 1964,
      "gọn": 1965,
      "tu": 1966,
      "Thăng": 1967,
      "2010": 1968,
      "nại": 1969,
      "cứng": 1970,
      "Israel": 1971,
      "bụng": 1972,
      "hầm": 1973,
      "mùi": 1974,
      "90": 1975,
      "lạm": 1976,
      "Trao": 1977,
      "nấu": 1978,
      "gan": 1979,
      "Google": 1980,
      "bơi": 1981,
      "cống": 1982,
      "Đất": 1983,
      "dám": 1984,
      "vỏ": 1985,
      "Danh": 1986,
      "Huyện": 1987,
      "mổ": 1988,
      "giáp": 1989,
      "dọc": 1990,
      "80": 1991,
      "Internet": 1992,
      "II": 1993,
      "nhảy": 1994,
      "tân": 1995,
      "TN": 1996,
      "Phụ": 1997,
      "CSGT": 1998,
      "##7": 1999,
      "50%": 2000,
      "Madrid": 2001,
      "Chia": 2002,
      "ảo": 2003,
      "Đô": 2004,
      "bốn": 2005,
      "Phần": 2006,
      "quang": 2007,
      "Vận": 2008,
      "Địa": 2009,
      "##8": 2010,
      "cổng": 2011,
      "Nhi": 2012,
      "Sản": 2013,
      "Dầu": 2014,
      "rửa": 2015,
      "Cty": 2016,
      "ấp": 2017,
      "##NĐ": 2018,
      "điệu": 2019,
      "hằng": 2020,
      "tốn": 2021,
      "Cát": 2022,
      "Q": 2023,
      "cụm": 2024,
      "lang": 2025,
      "Nhóm": 2026,
      "trứng": 2027,
      "Chấp": 2028,
      "Nhận": 2029,
      "tết": 2030,
      "Xe": 2031,
      "Tháp": 2032,
      "trầm": 2033,
      "32": 2034,
      "thăng": 2035,
      "đâ": 2036,
      "Động": 2037,
      "Làm": 2038,
      "Đồn": 2039,
      "trưa": 2040,
      "hàm": 2041,
      "Tú": 2042,
      "mạo": 2043,
      "khóc": 2044,
      "phỏng": 2045,
      "lệch": 2046,
      "cắp": 2047,
      "QĐ": 2048,
      "Nhờ": 2049,
      "Triển": 2050,
      "##4": 2051,
      "bột": 2052,
      "cất": 2053,
      "trôi": 2054,
      "móc": 2055,
      "khuẩn": 2056,
      "Bị": 2057,
      "bếp": 2058,
      "Tối": 2059,
      "ghép": 2060,
      "tắm": 2061,
      "thuẫn": 2062,
      "Đ": 2063,
      "sót": 2064,
      "Huệ": 2065,
      "tắt": 2066,
      "đạp": 2067,
      "Viettel": 2068,
      "mảnh": 2069,
      "trần": 2070,
      "hối": 2071,
      "smartphone": 2072,
      "cãi": 2073,
      "Thiếu": 2074,
      "Hiền": 2075,
      "khát": 2076,
      "Thi": 2077,
      "##U": 2078,
      "Nói": 2079,
      "Đăng": 2080,
      "a": 2081,
      "Hiếu": 2082,
      "ngộ": 2083,
      "sa": 2084,
      "thô": 2085,
      "31": 2086,
      "Nước": 2087,
      "giọng": 2088,
      "chuyền": 2089,
      "Bạch": 2090,
      "che": 2091,
      "chàng": 2092,
      "thiệp": 2093,
      "Đã": 2094,
      "Thịnh": 2095,
      "Chu": 2096,
      "lò": 2097,
      "trà": 2098,
      "lọt": 2099,
      "tựu": 2100,
      "MT": 2101,
      "tây": 2102,
      "bổng": 2103,
      "Mau": 2104,
      "Brazil": 2105,
      "va": 2106,
      "heo": 2107,
      "đồn": 2108,
      "thoái": 2109,
      "01": 2110,
      "clip": 2111,
      "APEC": 2112,
      "THCS": 2113,
      "khơi": 2114,
      "vời": 2115,
      "Đáng": 2116,
      "Câu": 2117,
      "bùng": 2118,
      "##hậm": 2119,
      "XII": 2120,
      "Vàng": 2121,
      "Khoảng": 2122,
      "36": 2123,
      "ôm": 2124,
      "c": 2125,
      "400": 2126,
      "Putin": 2127,
      "##6": 2128,
      "Hôm": 2129,
      "##9": 2130,
      "rèn": 2131,
      "Vũng": 2132,
      "thự": 2133,
      "giấu": 2134,
      "lưng": 2135,
      "đà": 2136,
      "béo": 2137,
      "Olympic": 2138,
      "vắng": 2139,
      "Hạnh": 2140,
      "buýt": 2141,
      "lầm": 2142,
      "cỏ": 2143,
      "nghiện": 2144,
      "Huyền": 2145,
      "nhịp": 2146,
      "thói": 2147,
      "dâng": 2148,
      "yết": 2149,
      "lấn": 2150,
      "tiê": 2151,
      "chó": 2152,
      "Nghiên": 2153,
      "FLC": 2154,
      "GDP": 2155,
      "mỏi": 2156,
      "##com": 2157,
      "đắt": 2158,
      "dàn": 2159,
      "Gần": 2160,
      "Online": 2161,
      "hẹp": 2162,
      "CĐ": 2163,
      "Thiện": 2164,
      "câ": 2165,
      "vẽ": 2166,
      "taxi": 2167,
      "Đơn": 2168,
      "BOT": 2169,
      "khống": 2170,
      "bớt": 2171,
      "bắc": 2172,
      "leo": 2173,
      "Ma": 2174,
      "gợi": 2175,
      "Phật": 2176,
      "hiê": 2177,
      "hảo": 2178,
      "Trí": 2179,
      "Trẻ": 2180,
      "Xem": 2181,
      "Cấp": 2182,
      "trống": 2183,
      "chừng": 2184,
      "Cập": 2185,
      "Hãy": 2186,
      "Thay": 2187,
      "Điển": 2188,
      "Thạnh": 2189,
      "Tuổi": 2190,
      "mệt": 2191,
      "LI": 2192,
      "nề": 2193,
      "táo": 2194,
      "Hiệu": 2195,
      "gom": 2196,
      "hồn": 2197,
      "Chưa": 2198,
      "giây": 2199,
      "Liêm": 2200,
      "tan": 2201,
      "Cảng": 2202,
      "dời": 2203,
      "lồng": 2204,
      "chìm": 2205,
      "dường": 2206,
      "10%": 2207,
      "ruộng": 2208,
      "Vịnh": 2209,
      "lây": 2210,
      "đới": 2211,
      "TIN": 2212,
      "Cuối": 2213,
      "##ha": 2214,
      "lồ": 2215,
      "Nghi": 2216,
      "150": 2217,
      "đừng": 2218,
      "xinh": 2219,
      "ân": 2220,
      "Chiếc": 2221,
      "lấp": 2222,
      "tròn": 2223,
      "TV": 2224,
      "Kỷ": 2225,
      "thước": 2226,
      "QUAN": 2227,
      "Kiều": 2228,
      "Iraq": 2229,
      "chín": 2230,
      "hung": 2231,
      "toạ": 2232,
      "Tự": 2233,
      "Nhơn": 2234,
      "Jong": 2235,
      "BV": 2236,
      "Thuý": 2237,
      "Cuba": 2238,
      "khổng": 2239,
      "Sông": 2240,
      "vua": 2241,
      "nút": 2242,
      "soạn": 2243,
      "trọn": 2244,
      "Thạch": 2245,
      "muối": 2246,
      "Khách": 2247,
      "Tiếng": 2248,
      "##TT": 2249,
      "rắn": 2250,
      "vẹn": 2251,
      "phái": 2252,
      "xưởng": 2253,
      "la": 2254,
      "ngươ": 2255,
      "Nguồn": 2256,
      "vê": 2257,
      "Mục": 2258,
      "KH": 2259,
      "quét": 2260,
      "game": 2261,
      "HTX": 2262,
      "MU": 2263,
      "tê": 2264,
      "dâu": 2265,
      "tách": 2266,
      "đam": 2267,
      "R": 2268,
      "Bất": 2269,
      "##d": 2270,
      "##TS": 2271,
      "kiêm": 2272,
      "đắp": 2273,
      "Sóc": 2274,
      "dắt": 2275,
      "Hãng": 2276,
      "##D": 2277,
      "##NG": 2278,
      "dỡ": 2279,
      "đ": 2280,
      "mù": 2281,
      "##B": 2282,
      "Phải": 2283,
      "33": 2284,
      "Nhìn": 2285,
      "vang": 2286,
      "chu": 2287,
      "rãi": 2288,
      "ổ": 2289,
      "Trái": 2290,
      "Căn": 2291,
      "##I": 2292,
      "GS": 2293,
      "biê": 2294,
      "củ": 2295,
      "thê": 2296,
      "vả": 2297,
      "lính": 2298,
      "gánh": 2299,
      "mặn": 2300,
      "mâu": 2301,
      "34": 2302,
      "sánh": 2303,
      "Dịch": 2304,
      "rải": 2305,
      "VietQ": 2306,
      "Tuần": 2307,
      "Myanmar": 2308,
      "##00": 2309,
      "pin": 2310,
      "Mã": 2311,
      "vải": 2312,
      "sơn": 2313,
      "Thiết": 2314,
      "dạ": 2315,
      "Toán": 2316,
      "lận": 2317,
      "nồng": 2318,
      "trắc": 2319,
      "mét": 2320,
      "TX": 2321,
      "đán": 2322,
      "khớp": 2323,
      "nhâ": 2324,
      "điê": 2325,
      "Paris": 2326,
      "cưỡng": 2327,
      "Đạo": 2328,
      "cỡ": 2329,
      "Liverpool": 2330,
      "Na": 2331,
      "Ánh": 2332,
      "giấc": 2333,
      "say": 2334,
      "ngọn": 2335,
      "sốc": 2336,
      "lặng": 2337,
      "Mexico": 2338,
      "đấy": 2339,
      "dập": 2340,
      "Lạc": 2341,
      "thơm": 2342,
      "lùi": 2343,
      "Nó": 2344,
      "đói": 2345,
      "Sao": 2346,
      "Galaxy": 2347,
      "Phía": 2348,
      "Hiến": 2349,
      "bón": 2350,
      "30%": 2351,
      "bụi": 2352,
      "NN": 2353,
      "Mẹ": 2354,
      "37": 2355,
      "Xuyên": 2356,
      "LĐLĐ": 2357,
      "York": 2358,
      "ái": 2359,
      "thoải": 2360,
      "Mọi": 2361,
      "Liêu": 2362,
      "tàn": 2363,
      "10.000": 2364,
      "rét": 2365,
      "Bồ": 2366,
      "4.0": 2367,
      "phổi": 2368,
      "ùn": 2369,
      "bề": 2370,
      "trươ": 2371,
      "Giới": 2372,
      "Bái": 2373,
      "2.000": 2374,
      "thợ": 2375,
      "Thuỳ": 2376,
      "##League": 2377,
      "vitamin": 2378,
      "tứ": 2379,
      "khói": 2380,
      "Obama": 2381,
      "cậy": 2382,
      "##M": 2383,
      "dã": 2384,
      "Group": 2385,
      "Đạt": 2386,
      "duyên": 2387,
      "Sư": 2388,
      "lơ": 2389,
      "Arsenal": 2390,
      "Bá": 2391,
      "vất": 2392,
      "Ca": 2393,
      "vỉa": 2394,
      "PGS": 2395,
      "Trắng": 2396,
      "FDI": 2397,
      "MTTQ": 2398,
      "ngõ": 2399,
      "##S": 2400,
      "Yến": 2401,
      "ném": 2402,
      "20%": 2403,
      "Khai": 2404,
      "Giờ": 2405,
      "top": 2406,
      "United": 2407,
      "hôi": 2408,
      "mãn": 2409,
      "Chuyên": 2410,
      "đựng": 2411,
      "u": 2412,
      "vương": 2413,
      "phế": 2414,
      "tĩnh": 2415,
      "răng": 2416,
      "trọ": 2417,
      "Bạc": 2418,
      "miếng": 2419,
      "Bước": 2420,
      "2009": 2421,
      "Hy": 2422,
      "ngực": 2423,
      "sô": 2424,
      "khuyên": 2425,
      "Phùng": 2426,
      "web": 2427,
      "2008": 2428,
      "##xã": 2429,
      "dò": 2430,
      "múa": 2431,
      "Rất": 2432,
      "My": 2433,
      "Messi": 2434,
      "Champions": 2435,
      "Thethaovanhoa": 2436,
      "nở": 2437,
      "Bích": 2438,
      "dọn": 2439,
      "lụt": 2440,
      "Lần": 2441,
      "Bắt": 2442,
      "thuần": 2443,
      "giường": 2444,
      "##un": 2445,
      "lỏng": 2446,
      "đẻ": 2447,
      "Kiến": 2448,
      "Phủ": 2449,
      "So": 2450,
      "Sun": 2451,
      "khoe": 2452,
      "khôi": 2453,
      "lốc": 2454,
      "khánh": 2455,
      "Mường": 2456,
      "Trạm": 2457,
      "giày": 2458,
      "PLO": 2459,
      "Trinh": 2460,
      "dính": 2461,
      "nhạy": 2462,
      "Lập": 2463,
      "38": 2464,
      "Vị": 2465,
      "BĐS": 2466,
      "LĐO": 2467,
      "Khê": 2468,
      "vs": 2469,
      "Mức": 2470,
      "Lạng": 2471,
      "nhiê": 2472,
      "đồi": 2473,
      "ác": 2474,
      "Pa": 2475,
      "chai": 2476,
      "Ronaldo": 2477,
      "su": 2478,
      "săn": 2479,
      "Italy": 2480,
      "Vi": 2481,
      "Quá": 2482,
      "Top": 2483,
      "CNTT": 2484,
      "Venezuela": 2485,
      "##20": 2486,
      "tiệc": 2487,
      "vợt": 2488,
      "chênh": 2489,
      "chua": 2490,
      "cáp": 2491,
      "bế": 2492,
      "bơm": 2493,
      "Kong": 2494,
      "Tỷ": 2495,
      "muộn": 2496,
      "Kỹ": 2497,
      "nếp": 2498,
      "May": 2499,
      "Ngành": 2500,
      "HĐQT": 2501,
      "Sang": 2502,
      "Máy": 2503,
      "Xuất": 2504,
      "thâm": 2505,
      "b": 2506,
      "trộn": 2507,
      "Bỉ": 2508,
      "02": 2509,
      "Tường": 2510,
      "##19": 2511,
      "##ing": 2512,
      "cẩn": 2513,
      "600": 2514,
      "long": 2515,
      "Tương": 2516,
      "tụng": 2517,
      "sập": 2518,
      "ốc": 2519,
      "Barca": 2520,
      "Cán": 2521,
      "FPT": 2522,
      "##/": 2523,
      "Tử": 2524,
      "chiêu": 2525,
      "chim": 2526,
      "co": 2527,
      "Lệ": 2528,
      "TT": 2529,
      "gạch": 2530,
      "Điền": 2531,
      "TW": 2532,
      "mm": 2533,
      "mảng": 2534,
      "PTNT": 2535,
      "nàng": 2536,
      "2-3": 2537,
      "1,5": 2538,
      "##kg": 2539,
      "PCCC": 2540,
      "hang": 2541,
      "ao": 2542,
      "măng": 2543,
      "Trăng": 2544,
      "2030": 2545,
      "Chợ": 2546,
      "Đi": 2547,
      "##ầm": 2548,
      "55": 2549,
      "chẩn": 2550,
      "châm": 2551,
      "CN": 2552,
      "HS": 2553,
      "Thuế": 2554,
      "Triệu": 2555,
      "tour": 2556,
      "đắc": 2557,
      "Quận": 2558,
      "cước": 2559,
      "d": 2560,
      "tủ": 2561,
      "san": 2562,
      "đọng": 2563,
      "kì": 2564,
      "mỡ": 2565,
      "lề": 2566,
      "Cửa": 2567,
      "lí": 2568,
      "viê": 2569,
      "sét": 2570,
      "luồng": 2571,
      "Vừa": 2572,
      "rạng": 2573,
      "Ví": 2574,
      "bể": 2575,
      "Đánh": 2576,
      "đeo": 2577,
      "Hong": 2578,
      "website": 2579,
      "h": 2580,
      "##P": 2581,
      "dệt": 2582,
      "bỏng": 2583,
      "Vinamilk": 2584,
      "48": 2585,
      "lường": 2586,
      "Tín": 2587,
      "Mùa": 2588,
      "120": 2589,
      "khoan": 2590,
      "n": 2591,
      "hụt": 2592,
      "chặng": 2593,
      "Argentina": 2594,
      "suối": 2595,
      "trội": 2596,
      "##in": 2597,
      "bô": 2598,
      "ức": 2599,
      "sụt": 2600,
      "Saudi": 2601,
      "Vấn": 2602,
      "Sức": 2603,
      "Chất": 2604,
      "Huawei": 2605,
      "mượn": 2606,
      "Phiên": 2607,
      "cúng": 2608,
      "rỡ": 2609,
      "trân": 2610,
      "xoay": 2611,
      "cai": 2612,
      "Cá": 2613,
      "thoáng": 2614,
      "ơ": 2615,
      "nhở": 2616,
      "thắt": 2617,
      "05": 2618,
      "Khởi": 2619,
      "lân": 2620,
      "lứa": 2621,
      "Airlines": 2622,
      "Trả": 2623,
      "t": 2624,
      "dồn": 2625,
      "VKSND": 2626,
      "e": 2627,
      "nhầm": 2628,
      "KCN": 2629,
      "Tre": 2630,
      "cắm": 2631,
      "ngắm": 2632,
      "Vùng": 2633,
      "Bàn": 2634,
      "CT": 2635,
      "kẹt": 2636,
      "vở": 2637,
      "Dưới": 2638,
      "Sỹ": 2639,
      "Nhưỡng": 2640,
      "Quyền": 2641,
      "bông": 2642,
      "Kể": 2643,
      "gắt": 2644,
      "##V": 2645,
      "VFF": 2646,
      "liều": 2647,
      "vây": 2648,
      "Hướng": 2649,
      "Trực": 2650,
      "phun": 2651,
      "Barcelona": 2652,
      "Lắk": 2653,
      "trùm": 2654,
      "rực": 2655,
      "##22": 2656,
      "Thêm": 2657,
      "39": 2658,
      "container": 2659,
      "Sử": 2660,
      "chém": 2661,
      "70%": 2662,
      "Khối": 2663,
      "xạ": 2664,
      "Lam": 2665,
      "III": 2666,
      "hoại": 2667,
      "dốc": 2668,
      "Honda": 2669,
      "##TTg": 2670,
      "virus": 2671,
      "Lạt": 2672,
      "Cựu": 2673,
      "vâ": 2674,
      "London": 2675,
      "trâu": 2676,
      "hiếp": 2677,
      "thâ": 2678,
      "lật": 2679,
      "hỗn": 2680,
      "Xin": 2681,
      "võ": 2682,
      "NTM": 2683,
      "chư": 2684,
      "VĐV": 2685,
      "AFF": 2686,
      "Than": 2687,
      "vội": 2688,
      "triều": 2689,
      "ngạc": 2690,
      "gay": 2691,
      "Cam": 2692,
      "HIV": 2693,
      "Games": 2694,
      "cm": 2695,
      "42": 2696,
      "hiển": 2697,
      "##r": 2698,
      "3.000": 2699,
      "TH": 2700,
      "Chứng": 2701,
      "EVN": 2702,
      "bì": 2703,
      "Seo": 2704,
      "Mờ": 2705,
      "dội": 2706,
      "CEO": 2707,
      "Brexit": 2708,
      "lông": 2709,
      "HĐXX": 2710,
      "ngợi": 2711,
      "xách": 2712,
      "Hoạt": 2713,
      "Tôn": 2714,
      "nảy": 2715,
      "gián": 2716,
      "nát": 2717,
      "hoãn": 2718,
      "mũ": 2719,
      "Cận": 2720,
      "LHQ": 2721,
      "lão": 2722,
      "mồ": 2723,
      "giãn": 2724,
      "ưa": 2725,
      "nghênh": 2726,
      "##H": 2727,
      "tháp": 2728,
      "O": 2729,
      "Rịa": 2730,
      "ôn": 2731,
      "Đêm": 2732,
      "Hầu": 2733,
      "03": 2734,
      "x": 2735,
      "Thí": 2736,
      "bọc": 2737,
      "Trì": 2738,
      "Premier": 2739,
      "NQ": 2740,
      "Reuters": 2741,
      "sợi": 2742,
      "ám": 2743,
      "NLĐ": 2744,
      "Cửu": 2745,
      "Android": 2746,
      "Khoản": 2747,
      "nhàng": 2748,
      "Trận": 2749,
      "NHNN": 2750,
      "chè": 2751,
      "cồn": 2752,
      "nấm": 2753,
      "Thấy": 2754,
      "bận": 2755,
      "QL": 2756,
      "5.000": 2757,
      "PC": 2758,
      "chuột": 2759,
      "Tiêu": 2760,
      "chinh": 2761,
      "mạn": 2762,
      "truyện": 2763,
      "Agribank": 2764,
      "khép": 2765,
      "MC": 2766,
      "qui": 2767,
      "uý": 2768,
      "Microsoft": 2769,
      "giận": 2770,
      "ATGT": 2771,
      "khứ": 2772,
      "65": 2773,
      "##ed": 2774,
      "trượt": 2775,
      "Huân": 2776,
      "luân": 2777,
      "bút": 2778,
      "Viên": 2779,
      "Tuyến": 2780,
      "hiếu": 2781,
      "Siêu": 2782,
      "sáu": 2783,
      "SEA": 2784,
      "mì": 2785,
      "80%": 2786,
      "Nâng": 2787,
      "nô": 2788,
      "Đan": 2789,
      "bọn": 2790,
      "trinh": 2791,
      "euro": 2792,
      "oan": 2793,
      "##K": 2794,
      "800": 2795,
      "sáp": 2796,
      "dưa": 2797,
      "hi": 2798,
      "Bé": 2799,
      "##er": 2800,
      "Chẳ": 2801,
      "Toyota": 2802,
      "Duyên": 2803,
      "Sĩ": 2804,
      "Hiển": 2805,
      "John": 2806,
      "khéo": 2807,
      "lõi": 2808,
      "mọc": 2809,
      "tiệm": 2810,
      "mến": 2811,
      "nạp": 2812,
      "vạn": 2813,
      "Năng": 2814,
      "đáy": 2815,
      "Cố": 2816,
      "Khắc": 2817,
      "gãy": 2818,
      "triê": 2819,
      "Nên": 2820,
      "90%": 2821,
      "Khuyến": 2822,
      "đôn": 2823,
      "Kiếm": 2824,
      "CSĐT": 2825,
      "mẻ": 2826,
      "Phóng": 2827,
      "cạn": 2828,
      "Môn": 2829,
      "móng": 2830,
      "luỹ": 2831,
      "phiến": 2832,
      "2007": 2833,
      "Ngôi": 2834,
      "giàn": 2835,
      "FC": 2836,
      "Đảo": 2837,
      "chê": 2838,
      "bát": 2839,
      "CĐV": 2840,
      "NS": 2841,
      "bách": 2842,
      "100.000": 2843,
      "gũi": 2844,
      "hái": 2845,
      "tráng": 2846,
      "thửa": 2847,
      "Cung": 2848,
      "Hỗ": 2849,
      "700": 2850,
      "Mông": 2851,
      "súc": 2852,
      "bẩn": 2853,
      "kiê": 2854,
      "43": 2855,
      "Sân": 2856,
      "250": 2857,
      "huyền": 2858,
      "##x": 2859,
      "46": 2860,
      "Xanh": 2861,
      "Thầy": 2862,
      "hà": 2863,
      "kiều": 2864,
      "váy": 2865,
      "mỏng": 2866,
      "Arabia": 2867,
      "Al": 2868,
      "NATO": 2869,
      "Thú": 2870,
      "Bóng": 2871,
      "BKS": 2872,
      "sưu": 2873,
      "##%": 2874,
      "hở": 2875,
      "đầm": 2876,
      "Grab": 2877,
      "lưỡng": 2878,
      "phô": 2879,
      "Cây": 2880,
      "Mourinho": 2881,
      "Móng": 2882,
      "Sen": 2883,
      "Kinhtedothi": 2884,
      "lôi": 2885,
      "cài": 2886,
      "al": 2887,
      "cúm": 2888,
      "thịnh": 2889,
      "Chuyện": 2890,
      "đứt": 2891,
      "41": 2892,
      "Tờ": 2893,
      "khe": 2894,
      "chôn": 2895,
      "mắm": 2896,
      "2000": 2897,
      "Sáu": 2898,
      "HAGL": 2899,
      "thọ": 2900,
      "Viết": 2901,
      "thắn": 2902,
      "nươ": 2903,
      "Xô": 2904,
      "facebook": 2905,
      "ráp": 2906,
      "Viê": 2907,
      "Tuyết": 2908,
      "40%": 2909,
      "mờ": 2910,
      "xi": 2911,
      "xơ": 2912,
      "tím": 2913,
      "dán": 2914,
      "Tìm": 2915,
      "dũng": 2916,
      "nhì": 2917,
      "đắn": 2918,
      "đĩa": 2919,
      "khoảnh": 2920,
      "Lee": 2921,
      "ngơi": 2922,
      "Chinhphu": 2923,
      "voi": 2924,
      "inch": 2925,
      "phu": 2926,
      "Juventus": 2927,
      "sương": 2928,
      "ong": 2929,
      "Tạ": 2930,
      "đuối": 2931,
      "ngự": 2932,
      "vịnh": 2933,
      "TPP": 2934,
      "Bố": 2935,
      "đế": 2936,
      "VNPT": 2937,
      "thềm": 2938,
      "04": 2939,
      "Tp": 2940,
      "lộn": 2941,
      "BIDV": 2942,
      "Cương": 2943,
      "internet": 2944,
      "thiêng": 2945,
      "Phổ": 2946,
      "Tokyo": 2947,
      "Giáp": 2948,
      "thổi": 2949,
      "Tác": 2950,
      "Mười": 2951,
      "Nhằm": 2952,
      "tâ": 2953,
      "5%": 2954,
      "tơ": 2955,
      "ranh": 2956,
      "Bảng": 2957,
      "Viễn": 2958,
      "51": 2959,
      "lỡ": 2960,
      "Vạn": 2961,
      "phe": 2962,
      "Trưng": 2963,
      "Zealand": 2964,
      "online": 2965,
      "Phút": 2966,
      "XIV": 2967,
      "dĩ": 2968,
      "khoăn": 2969,
      "44": 2970,
      "nhẫn": 2971,
      "chuối": 2972,
      "52": 2973,
      "v": 2974,
      "tẩy": 2975,
      "Moscow": 2976,
      "NLĐO": 2977,
      "75": 2978,
      "##10": 2979,
      "bi": 2980,
      "Tám": 2981,
      "Uông": 2982,
      "thưa": 2983,
      "Dược": 2984,
      "tú": 2985,
      "De": 2986,
      "hò": 2987,
      "nướng": 2988,
      "Ô": 2989,
      "kề": 2990,
      "Nhung": 2991,
      "Áo": 2992,
      "Vợ": 2993,
      "Gió": 2994,
      "rộn": 2995,
      "kiệt": 2996,
      "NH": 2997,
      "63": 2998,
      "tha": 2999,
      "Bảy": 3000,
      "VND": 3001,
      "Đàm": 3002,
      "soi": 3003,
      "lăng": 3004,
      "Phim": 3005,
      "men": 3006,
      "Thật": 3007,
      "Su": 3008,
      "Khải": 3009,
      "đúc": 3010,
      "hổ": 3011,
      "màng": 3012,
      "MTV": 3013,
      "Mẫu": 3014,
      "David": 3015,
      "Kon": 3016,
      "lâ": 3017,
      "Phù": 3018,
      "ho": 3019,
      "Qatar": 3020,
      "49": 3021,
      "Bãi": 3022,
      "nhắm": 3023,
      "vắc": 3024,
      "băn": 3025,
      "viếng": 3026,
      "##UBND": 3027,
      "47": 3028,
      "xô": 3029,
      "Ly": 3030,
      "thấu": 3031,
      "Đền": 3032,
      "Phân": 3033,
      "2006": 3034,
      "Đẩy": 3035,
      "20.000": 3036,
      "gác": 3037,
      "manh": 3038,
      "qu": 3039,
      "lê": 3040,
      "nã": 3041,
      "golf": 3042,
      "60%": 3043,
      "nứt": 3044,
      "g": 3045,
      "bỗng": 3046,
      "xỉ": 3047,
      "xá": 3048,
      "ngô": 3049,
      "##X": 3050,
      "Asian": 3051,
      "dải": 3052,
      "khoác": 3053,
      "##k": 3054,
      "hố": 3055,
      "đoan": 3056,
      "Vòng": 3057,
      "Bán": 3058,
      "Quán": 3059,
      "bảy": 3060,
      "nụ": 3061,
      "Oanh": 3062,
      "San": 3063,
      "Khí": 3064,
      "Đúng": 3065,
      "Trạch": 3066,
      "xưng": 3067,
      "dịu": 3068,
      "email": 3069,
      "Bưu": 3070,
      "show": 3071,
      "lăn": 3072,
      "lặn": 3073,
      "Thân": 3074,
      "XI": 3075,
      "Hay": 3076,
      "Bách": 3077,
      "fan": 3078,
      "lội": 3079,
      "chả": 3080,
      "rẽ": 3081,
      "Mở": 3082,
      "2025": 3083,
      "cự": 3084,
      "Lăng": 3085,
      "ồn": 3086,
      "##seo": 3087,
      "ngột": 3088,
      "nhan": 3089,
      "2021": 3090,
      "J": 3091,
      "Lục": 3092,
      "phiền": 3093,
      "Phả": 3094,
      "chép": 3095,
      "Quả": 3096,
      "Đống": 3097,
      "nhí": 3098,
      "BS": 3099,
      "##L": 3100,
      "Phố": 3101,
      "đòn": 3102,
      "thấm": 3103,
      "Uyên": 3104,
      "tre": 3105,
      "loa": 3106,
      "2,5": 3107,
      "2005": 3108,
      "ốm": 3109,
      "chuộng": 3110,
      "dừa": 3111,
      "tần": 3112,
      "64": 3113,
      "cua": 3114,
      "QĐND": 3115,
      "lu": 3116,
      "cay": 3117,
      "##style": 3118,
      "ĐBSCL": 3119,
      "nôn": 3120,
      "ngâm": 3121,
      "1-2": 3122,
      "Khương": 3123,
      "tị": 3124,
      "hơ": 3125,
      "Làng": 3126,
      "láng": 3127,
      "Mậu": 3128,
      "dồ": 3129,
      "dở": 3130,
      "Hè": 3131,
      "kiềm": 3132,
      "rũ": 3133,
      "Bayern": 3134,
      "Lò": 3135,
      "MV": 3136,
      "Miền": 3137,
      "ĐBQH": 3138,
      "ngựa": 3139,
      "rỉ": 3140,
      "News": 3141,
      "54": 3142,
      "Tum": 3143,
      "hòn": 3144,
      "Co": 3145,
      "Video": 3146,
      "phâ": 3147,
      "Vật": 3148,
      "sạc": 3149,
      "HCV": 3150,
      "Âm": 3151,
      "sen": 3152,
      "BTC": 3153,
      "hoài": 3154,
      "SJC": 3155,
      "dạn": 3156,
      "tưới": 3157,
      "phanh": 3158,
      "đành": 3159,
      "Tên": 3160,
      "Nơi": 3161,
      "xà": 3162,
      "mùng": 3163,
      "Đừng": 3164,
      "phơi": 3165,
      "Twitter": 3166,
      "Sẽ": 3167,
      "Tạo": 3168,
      "hoạn": 3169,
      "nhọn": 3170,
      "false": 3171,
      "tặc": 3172,
      "Cứ": 3173,
      "Afghanistan": 3174,
      "dãy": 3175,
      "Times": 3176,
      "for": 3177,
      "ngón": 3178,
      "200.000": 3179,
      "ngào": 3180,
      "Quế": 3181,
      "chăng": 3182,
      "xông": 3183,
      "Đổi": 3184,
      "Yêu": 3185,
      "vượng": 3186,
      "30.000": 3187,
      "kem": 3188,
      "Tới": 3189,
      "##O": 3190,
      "LĐ": 3191,
      "thạch": 3192,
      "tựa": 3193,
      "Khang": 3194,
      "rủ": 3195,
      "CPTPP": 3196,
      "cọc": 3197,
      "quyến": 3198,
      "tạng": 3199,
      "hoành": 3200,
      "tuyết": 3201,
      "thắ": 3202,
      "##18": 3203,
      "Air": 3204,
      "nhé": 3205,
      "trễ": 3206,
      "Vườn": 3207,
      "lữ": 3208,
      "Sách": 3209,
      "đuôi": 3210,
      "bùn": 3211,
      "72": 3212,
      "im": 3213,
      "Ra": 3214,
      "4.000": 3215,
      "Neymar": 3216,
      "cóc": 3217,
      "rạp": 3218,
      "50.000": 3219,
      "quãng": 3220,
      "sỏi": 3221,
      "neo": 3222,
      "thầm": 3223,
      "giơ": 3224,
      "Cha": 3225,
      "rệt": 3226,
      "nghiê": 3227,
      "de": 3228,
      "Uber": 3229,
      "Rồi": 3230,
      "1.500": 3231,
      "Boeing": 3232,
      "Thần": 3233,
      "Hợi": 3234,
      "nhậu": 3235,
      "thánh": 3236,
      "Vietcombank": 3237,
      "PVN": 3238,
      "siết": 3239,
      "buông": 3240,
      "Seoul": 3241,
      "##15": 3242,
      "Lạp": 3243,
      "khoai": 3244,
      "cúp": 3245,
      "xao": 3246,
      "dại": 3247,
      "bắp": 3248,
      "Vy": 3249,
      "trơ": 3250,
      "gối": 3251,
      "##ch": 3252,
      "xích": 3253,
      "túng": 3254,
      "cởi": 3255,
      "Giai": 3256,
      "mòn": 3257,
      "hàn": 3258,
      "hắn": 3259,
      "##v": 3260,
      "Pakistan": 3261,
      "ODA": 3262,
      "việt": 3263,
      "bội": 3264,
      "Mộc": 3265,
      "dẹp": 3266,
      "robot": 3267,
      "mộng": 3268,
      "62": 3269,
      "Lượng": 3270,
      "chanh": 3271,
      "giếng": 3272,
      "lư": 3273,
      "Cảm": 3274,
      "IV": 3275,
      "Vĩ": 3276,
      "Nghe": 3277,
      "xổ": 3278,
      "Thoả": 3279,
      "đạc": 3280,
      "Diệu": 3281,
      "FIFA": 3282,
      "bộc": 3283,
      "##và": 3284,
      "Tottenham": 3285,
      "quyê": 3286,
      "Vua": 3287,
      "500.000": 3288,
      "##cm": 3289,
      "nhạt": 3290,
      "Vladimir": 3291,
      "Xác": 3292,
      "mía": 3293,
      "Bức": 3294,
      "gã": 3295,
      "đùa": 3296,
      "hạch": 3297,
      "Buổi": 3298,
      "Kông": 3299,
      "Xử": 3300,
      "Cổng": 3301,
      "110": 3302,
      "##HCM": 3303,
      "giềng": 3304,
      "Chân": 3305,
      "Thẩm": 3306,
      "đớn": 3307,
      "thắp": 3308,
      "Gò": 3309,
      "Tứ": 3310,
      "Muốn": 3311,
      "mò": 3312,
      "##l": 3313,
      "25%": 3314,
      "56": 3315,
      "Hòn": 3316,
      "Cúp": 3317,
      "Đam": 3318,
      "má": 3319,
      "chán": 3320,
      "Trời": 3321,
      "vành": 3322,
      "dối": 3323,
      "kè": 3324,
      "Nguyệt": 3325,
      "vư": 3326,
      "nồi": 3327,
      "Uy": 3328,
      "Chinh": 3329,
      "Lờ": 3330,
      "TTH": 3331,
      "trăng": 3332,
      "nghiêng": 3333,
      "ớt": 3334,
      "##para": 3335,
      "TNGT": 3336,
      "##êu": 3337,
      "Núi": 3338,
      "lươ": 3339,
      "Chuyến": 3340,
      "khốc": 3341,
      "lát": 3342,
      "vịt": 3343,
      "chúa": 3344,
      "kẹo": 3345,
      "15%": 3346,
      "ngưng": 3347,
      "gục": 3348,
      "##đã": 3349,
      "quát": 3350,
      "nho": 3351,
      "Km": 3352,
      "67": 3353,
      "chật": 3354,
      "Lộ": 3355,
      "Chú": 3356,
      "pt": 3357,
      "chéo": 3358,
      "chiê": 3359,
      "Mình": 3360,
      "NSND": 3361,
      "Trụ": 3362,
      "bưu": 3363,
      "Bank": 3364,
      "1982": 3365,
      "Grand": 3366,
      "vú": 3367,
      "Pro": 3368,
      "tùng": 3369,
      "xen": 3370,
      "Khoá": 3371,
      "Lại": 3372,
      "##Index": 3373,
      "bấm": 3374,
      "Tri": 3375,
      "đạm": 3376,
      "vóc": 3377,
      "##NH": 3378,
      "l": 3379,
      "mày": 3380,
      "lặp": 3381,
      "cốc": 3382,
      "Phu": 3383,
      "##margin": 3384,
      "1,2": 3385,
      "Ngữ": 3386,
      "Hàm": 3387,
      "Vingroup": 3388,
      "rung": 3389,
      "Giáng": 3390,
      "Kiệt": 3391,
      "đụng": 3392,
      "cấy": 3393,
      "thiê": 3394,
      "Euro": 3395,
      "Windows": 3396,
      "gieo": 3397,
      "chuồng": 3398,
      "James": 3399,
      "Note": 3400,
      "Bây": 3401,
      "côn": 3402,
      "ơi": 3403,
      "rộ": 3404,
      "rao": 3405,
      "Ford": 3406,
      "bàng": 3407,
      "hot": 3408,
      "Dư": 3409,
      "Nạn": 3410,
      "XIII": 3411,
      "Pogba": 3412,
      "Cư": 3413,
      "53": 3414,
      "úng": 3415,
      "Resort": 3416,
      "99": 3417,
      "buồng": 3418,
      "XH": 3419,
      "gas": 3420,
      "vớt": 3421,
      "1990": 3422,
      "Lĩnh": 3423,
      "Đôi": 3424,
      "KT": 3425,
      "on": 3426,
      "Táo": 3427,
      "ròng": 3428,
      "Buôn": 3429,
      "kĩ": 3430,
      "trăn": 3431,
      "Palestine": 3432,
      "bồn": 3433,
      "dặn": 3434,
      "sởi": 3435,
      "chay": 3436,
      "DL": 3437,
      "dạo": 3438,
      "hãi": 3439,
      "Amazon": 3440,
      "Trình": 3441,
      "Bô": 3442,
      "UAE": 3443,
      "Chế": 3444,
      "Chữ": 3445,
      "nhôm": 3446,
      "Trúc": 3447,
      "đếm": 3448,
      "đèo": 3449,
      "vứt": 3450,
      "chip": 3451,
      "nòng": 3452,
      "Đàn": 3453,
      "Van": 3454,
      "SHB": 3455,
      "92": 3456,
      "58": 3457,
      "táng": 3458,
      "xôi": 3459,
      "đệm": 3460,
      "Milan": 3461,
      "2003": 3462,
      "nhặt": 3463,
      "lắc": 3464,
      "Xét": 3465,
      "Bát": 3466,
      "Tịnh": 3467,
      "Thánh": 3468,
      "cắn": 3469,
      "Tinh": 3470,
      "chửi": 3471,
      "mộc": 3472,
      "karaoke": 3473,
      "tước": 3474,
      "no": 3475,
      "ngoan": 3476,
      "khôn": 3477,
      "06": 3478,
      "vạch": 3479,
      "tồi": 3480,
      "ào": 3481,
      "UNESCO": 3482,
      "Chăm": 3483,
      "kí": 3484,
      "Tuyển": 3485,
      "Atletico": 3486,
      "Mà": 3487,
      "ATTP": 3488,
      "Miss": 3489,
      "ATM": 3490,
      "Loại": 3491,
      "còi": 3492,
      "báu": 3493,
      "điền": 3494,
      "Mê": 3495,
      "Đằng": 3496,
      "Dùng": 3497,
      "AI": 3498,
      "thủng": 3499,
      "mương": 3500,
      "tống": 3501,
      "quái": 3502,
      "nhiếp": 3503,
      "ghé": 3504,
      "họng": 3505,
      "kép": 3506,
      "08": 3507,
      "k": 3508,
      "đằng": 3509,
      "68": 3510,
      "Abe": 3511,
      "bẫy": 3512,
      "##Trung": 3513,
      "PSG": 3514,
      "2022": 3515,
      "##XH": 3516,
      "##an": 3517,
      "Mekong": 3518,
      "điên": 3519,
      "2004": 3520,
      "tóm": 3521,
      "khuất": 3522,
      "Vượng": 3523,
      "ngặt": 3524,
      "muỗi": 3525,
      "oxy": 3526,
      "lộc": 3527,
      "thiêu": 3528,
      "cành": 3529,
      "nén": 3530,
      "Trải": 3531,
      "Đỏ": 3532,
      "mác": 3533,
      "thoảng": 3534,
      "Đá": 3535,
      "bưởi": 3536,
      "57": 3537,
      "diê": 3538,
      "hiền": 3539,
      "rồng": 3540,
      "Nhạc": 3541,
      "bứt": 3542,
      "Bầu": 3543,
      "VH": 3544,
      "bơ": 3545,
      "##ớc": 3546,
      "Ghi": 3547,
      "man": 3548,
      "##45": 3549,
      "rò": 3550,
      "nhường": 3551,
      "Quô": 3552,
      "đắng": 3553,
      "Tạp": 3554,
      "vặt": 3555,
      "Mi": 3556,
      "VCCI": 3557,
      "El": 3558,
      "85": 3559,
      "tạ": 3560,
      "vĩnh": 3561,
      "Manchester": 3562,
      "rô": 3563,
      "tràng": 3564,
      "Chuyển": 3565,
      "Biết": 3566,
      "Vẫn": 3567,
      "thám": 3568,
      "giọt": 3569,
      "TTHC": 3570,
      "đốn": 3571,
      "Dinh": 3572,
      "61": 3573,
      "2016-2020": 3574,
      "Mạch": 3575,
      "Cậu": 3576,
      "Nhã": 3577,
      "Hô": 3578,
      "Chùa": 3579,
      "Clinton": 3580,
      "##-35": 3581,
      "King": 3582,
      "Big": 3583,
      "lùng": 3584,
      "AFP": 3585,
      "lưỡi": 3586,
      "Nghiêm": 3587,
      "Colombia": 3588,
      "130": 3589,
      "cong": 3590,
      "Nà": 3591,
      "Đọc": 3592,
      "Cải": 3593,
      "300.000": 3594,
      "MobiFone": 3595,
      "Diệp": 3596,
      "YouTube": 3597,
      "Khám": 3598,
      "Vietjet": 3599,
      "ngọc": 3600,
      "Ngũ": 3601,
      "chèo": 3602,
      "##TB": 3603,
      "Băng": 3604,
      "Nhì": 3605,
      "Ái": 3606,
      "vét": 3607,
      "nương": 3608,
      "95": 3609,
      "gốm": 3610,
      "1/3": 3611,
      "bạ": 3612,
      "1/8": 3613,
      "léo": 3614,
      "nới": 3615,
      "chui": 3616,
      "2-1": 3617,
      "nan": 3618,
      "răn": 3619,
      "nhộn": 3620,
      "Mua": 3621,
      "180": 3622,
      "rong": 3623,
      "LCĐT": 3624,
      "phì": 3625,
      "Cử": 3626,
      "Khanh": 3627,
      "Michael": 3628,
      "mìn": 3629,
      "Plus": 3630,
      "chiết": 3631,
      "Khuê": 3632,
      "ngỡ": 3633,
      "xướng": 3634,
      "vọt": 3635,
      "Ngược": 3636,
      "chậu": 3637,
      "Phường": 3638,
      "Cháy": 3639,
      "quầy": 3640,
      "Festival": 3641,
      "xát": 3642,
      "khao": 3643,
      "đống": 3644,
      "đũa": 3645,
      "Le": 3646,
      "VI": 3647,
      "thối": 3648,
      "Hoành": 3649,
      "Độc": 3650,
      "Khó": 3651,
      "Lô": 3652,
      "điêu": 3653,
      "Đồ": 3654,
      "09": 3655,
      "Chile": 3656,
      "Paul": 3657,
      "châ": 3658,
      "Hân": 3659,
      "dào": 3660,
      "tỏi": 3661,
      "nghiệt": 3662,
      "chiêm": 3663,
      "tem": 3664,
      "sụp": 3665,
      "....": 3666,
      "Giữa": 3667,
      "##size": 3668,
      "khang": 3669,
      "tươ": 3670,
      "vuông": 3671,
      "Bay": 3672,
      "Thất": 3673,
      "quyên": 3674,
      "QH": 3675,
      "hê": 3676,
      "1-1": 3677,
      "ounce": 3678,
      "2-0": 3679,
      "Land": 3680,
      "vã": 3681,
      "VinFast": 3682,
      "##GB": 3683,
      "Vang": 3684,
      "##mm": 3685,
      "Liệu": 3686,
      "##E": 3687,
      "nhức": 3688,
      "##ếp": 3689,
      "CH": 3690,
      "Phấn": 3691,
      "Dòng": 3692,
      "Son": 3693,
      "Moon": 3694,
      "rể": 3695,
      "Bangkok": 3696,
      "Vệ": 3697,
      "quạt": 3698,
      "tụt": 3699,
      "FTA": 3700,
      "xôn": 3701,
      "59": 3702,
      "Liga": 3703,
      "ANTD": 3704,
      "BMW": 3705,
      "Biểu": 3706,
      "hận": 3707,
      "đan": 3708,
      "lún": 3709,
      "rắc": 3710,
      "Hạt": 3711,
      "Tràng": 3712,
      "VietinBank": 3713,
      "kỉ": 3714,
      "xót": 3715,
      "axit": 3716,
      "##cho": 3717,
      "bóc": 3718,
      "quyển": 3719,
      "iOS": 3720,
      "Yemen": 3721,
      "khoang": 3722,
      "nhiễu": 3723,
      "bạt": 3724,
      "##caption": 3725,
      "3,5": 3726,
      "350": 3727,
      "liêng": 3728,
      "Jordan": 3729,
      "Bàng": 3730,
      "chìa": 3731,
      "hổng": 3732,
      "Italia": 3733,
      "nạo": 3734,
      "khiêm": 3735,
      "RON": 3736,
      "Thiêm": 3737,
      "bấy": 3738,
      "hao": 3739,
      "đè": 3740,
      "Giảm": 3741,
      "Alibaba": 3742,
      "##ết": 3743,
      "Tranh": 3744,
      "1999": 3745,
      "Mưa": 3746,
      "Enternews": 3747,
      "Quyên": 3748,
      "th": 3749,
      "ủ": 3750,
      "ván": 3751,
      "Da": 3752,
      "1-0": 3753,
      "##0": 3754,
      "Ký": 3755,
      "Đắc": 3756,
      "chuông": 3757,
      "Lữ": 3758,
      "Rồng": 3759,
      "Diễm": 3760,
      "BCH": 3761,
      "Quất": 3762,
      "1975": 3763,
      "1995": 3764,
      "2%": 3765,
      "with": 3766,
      "eo": 3767,
      "In": 3768,
      "6.000": 3769,
      "lột": 3770,
      "Mạng": 3771,
      "Kạn": 3772,
      "71": 3773,
      "tam": 3774,
      "giặt": 3775,
      "van": 3776,
      "lui": 3777,
      "quật": 3778,
      "Từng": 3779,
      "Gửi": 3780,
      "mă": 3781,
      "kíp": 3782,
      "Nằm": 3783,
      "quô": 3784,
      "Côn": 3785,
      "Z": 3786,
      "15.000": 3787,
      "Tuất": 3788,
      "95%": 3789,
      "Đứ": 3790,
      "HD": 3791,
      "Rạng": 3792,
      "##QĐ": 3793,
      "BT": 3794,
      "hước": 3795,
      "##Thái": 3796,
      "Trấn": 3797,
      "dép": 3798,
      "ĐB": 3799,
      "Tố": 3800,
      "VKS": 3801,
      "Diện": 3802,
      "##co": 3803,
      "Séc": 3804,
      "giã": 3805,
      "Tiết": 3806,
      "né": 3807,
      "1992": 3808,
      "GPMB": 3809,
      "Hyundai": 3810,
      "dâ": 3811,
      "07": 3812,
      "dỗ": 3813,
      "mèo": 3814,
      "nghẽn": 3815,
      "xuâ": 3816,
      "66": 3817,
      "Chuẩn": 3818,
      "Nhiệm": 3819,
      "lau": 3820,
      "Gi": 3821,
      "bă": 3822,
      "mài": 3823,
      "Nguy": 3824,
      "đục": 3825,
      "Libya": 3826,
      "ngất": 3827,
      "hạm": 3828,
      "74": 3829,
      "Mark": 3830,
      "vân": 3831,
      "Vinhomes": 3832,
      "khử": 3833,
      "xoáy": 3834,
      "ngoạn": 3835,
      "Tehran": 3836,
      "Croatia": 3837,
      "##ếm": 3838,
      "Chúc": 3839,
      "VTC": 3840,
      "Mazda": 3841,
      "then": 3842,
      "##on": 3843,
      "Chấn": 3844,
      "Clip": 3845,
      "Munich": 3846,
      "album": 3847,
      "keo": 3848,
      "Đầm": 3849,
      "cuồng": 3850,
      "Lân": 3851,
      "Hào": 3852,
      "Bao": 3853,
      "73": 3854,
      "TMCP": 3855,
      "nhát": 3856,
      "ráo": 3857,
      "Chiểu": 3858,
      "khan": 3859,
      "lụa": 3860,
      "##px": 3861,
      "Mong": 3862,
      "Th": 3863,
      "Moskva": 3864,
      "tám": 3865,
      "##ri": 3866,
      "Đang": 3867,
      "mâm": 3868,
      "##50": 3869,
      "VCK": 3870,
      "cuô": 3871,
      "bar": 3872,
      "Đưa": 3873,
      "gầm": 3874,
      "Phụng": 3875,
      "startup": 3876,
      "W": 3877,
      "3-4": 3878,
      "Cú": 3879,
      "CHQS": 3880,
      "gậy": 3881,
      "1.200": 3882,
      "khiếp": 3883,
      "ham": 3884,
      "Tim": 3885,
      "Trách": 3886,
      "ghen": 3887,
      "Sữa": 3888,
      "Trạ": 3889,
      "tốp": 3890,
      "1997": 3891,
      "gặt": 3892,
      "Barack": 3893,
      "Phối": 3894,
      "Khả": 3895,
      "##của": 3896,
      "##ly": 3897,
      "##-2016": 3898,
      "Bốn": 3899,
      "Thích": 3900,
      "81": 3901,
      "Lầu": 3902,
      "nàn": 3903,
      "protein": 3904,
      "đặn": 3905,
      "mồi": 3906,
      "1%": 3907,
      "iPad": 3908,
      "Oscar": 3909,
      "Ân": 3910,
      "thằng": 3911,
      "2002": 3912,
      "88": 3913,
      "AFC": 3914,
      "sườn": 3915,
      "rước": 3916,
      "Mấy": 3917,
      "1994": 3918,
      "##21": 3919,
      "40.000": 3920,
      "bôi": 3921,
      "Binh": 3922,
      "lánh": 3923,
      "LG": 3924,
      "chô": 3925,
      "lam": 3926,
      "WB": 3927,
      "Vô": 3928,
      "chốn": 3929,
      "Lo": 3930,
      "mụn": 3931,
      "0%": 3932,
      "Jae": 3933,
      "Mercedes": 3934,
      "muôn": 3935,
      "sướng": 3936,
      "diễu": 3937,
      "nâu": 3938,
      "69": 3939,
      "cọ": 3940,
      "Rõ": 3941,
      "dê": 3942,
      "Liệt": 3943,
      "ngu": 3944,
      "lướt": 3945,
      "Nokia": 3946,
      "Tu": 3947,
      "1993": 3948,
      "Cụm": 3949,
      "Thới": 3950,
      "trơn": 3951,
      "##ếu": 3952,
      "phẳng": 3953,
      "Nghề": 3954,
      "đắm": 3955,
      "vấp": 3956,
      "ư": 3957,
      "lách": 3958,
      "ê": 3959,
      "Nay": 3960,
      "3%": 3961,
      "Tông": 3962,
      "mười": 3963,
      "Inter": 3964,
      "kẽ": 3965,
      "Sống": 3966,
      "diệu": 3967,
      "##Việt": 3968,
      "bừng": 3969,
      "bong": 3970,
      "Cháu": 3971,
      "ạ": 3972,
      "bóp": 3973,
      "Bi": 3974,
      "showbiz": 3975,
      "cò": 3976,
      "##có": 3977,
      "xuôi": 3978,
      "font": 3979,
      "Kho": 3980,
      "lốp": 3981,
      "nghịch": 3982,
      "##ứa": 3983,
      "International": 3984,
      "văng": 3985,
      "900": 3986,
      "Peru": 3987,
      "ồ": 3988,
      "AIDS": 3989,
      "chọi": 3990,
      "Huấn": 3991,
      "ngỏ": 3992,
      "trệ": 3993,
      "Chắc": 3994,
      "hé": 3995,
      "cám": 3996,
      "Thưa": 3997,
      "ạt": 3998,
      "vách": 3999,
      "79": 4000,
      "chưng": 4001,
      "sâm": 4002,
      "son": 4003,
      "Airways": 4004,
      "CNN": 4005,
      "hăng": 4006,
      "TĐ": 4007,
      "1998": 4008,
      "Ngư": 4009,
      "cỗ": 4010,
      "tivi": 4011,
      "cào": 4012,
      "ni": 4013,
      "mạ": 4014,
      "Quỷ": 4015,
      "logistics": 4016,
      "tia": 4017,
      "bâ": 4018,
      "heroin": 4019,
      "##man": 4020,
      "rễ": 4021,
      "##es": 4022,
      "Cặp": 4023,
      "EVFTA": 4024,
      "2001": 4025,
      "Góc": 4026,
      "cẩu": 4027,
      "Kẻ": 4028,
      "trán": 4029,
      "gen": 4030,
      "hán": 4031,
      "##b": 4032,
      "kWh": 4033,
      "vòi": 4034,
      "lộng": 4035,
      "ướt": 4036,
      "xẻ": 4037,
      "gai": 4038,
      "Dao": 4039,
      "set": 4040,
      "dẻo": 4041,
      "chì": 4042,
      "Tai": 4043,
      "CCB": 4044,
      "Áp": 4045,
      "Chàm": 4046,
      "140": 4047,
      "##Bình": 4048,
      "nhái": 4049,
      "thạc": 4050,
      "o": 4051,
      "nhọc": 4052,
      "xám": 4053,
      "1,3": 4054,
      "160": 4055,
      "Harry": 4056,
      "đính": 4057,
      "Vốn": 4058,
      "ng": 4059,
      "Mây": 4060,
      "##ta": 4061,
      "Nhấn": 4062,
      "Đoạn": 4063,
      "Hungary": 4064,
      "Dĩ": 4065,
      "cháo": 4066,
      "Hen": 4067,
      "Lang": 4068,
      "Xá": 4069,
      "tát": 4070,
      "Ireland": 4071,
      "Lấy": 4072,
      "trọt": 4073,
      "tò": 4074,
      "CNLĐ": 4075,
      "đệ": 4076,
      "1996": 4077,
      "xấ": 4078,
      "đinh": 4079,
      "Nghiệp": 4080,
      "sưng": 4081,
      "mịn": 4082,
      "Điệp": 4083,
      "width": 4084,
      "Cám": 4085,
      "Cúc": 4086,
      "ập": 4087,
      "nắp": 4088,
      "lót": 4089,
      "bẩm": 4090,
      "Nhuận": 4091,
      "đă": 4092,
      "##được": 4093,
      "Mùi": 4094,
      "chuyê": 4095,
      "Trở": 4096,
      "77": 4097,
      "Dịp": 4098,
      "2/9": 4099,
      "Sắc": 4100,
      "Asia": 4101,
      "GB": 4102,
      "82": 4103,
      "vôi": 4104,
      "út": 4105,
      "mi": 4106,
      "Hộ": 4107,
      "Formosa": 4108,
      "tấp": 4109,
      "CPI": 4110,
      "Hollywood": 4111,
      "quấy": 4112,
      "nhậm": 4113,
      "rụi": 4114,
      "Củ": 4115,
      "bún": 4116,
      "giặc": 4117,
      "Sony": 4118,
      "Khảo": 4119,
      "tẩu": 4120,
      "91": 4121,
      "%": 4122,
      "Sanchez": 4123,
      "##ấy": 4124,
      "##ra": 4125,
      "râ": 4126,
      "mít": 4127,
      "âu": 4128,
      "TR": 4129,
      "WHO": 4130,
      "Vincom": 4131,
      "86": 4132,
      "MH": 4133,
      "Ha": 4134,
      "nuối": 4135,
      "WTO": 4136,
      "mini": 4137,
      "West": 4138,
      "Golf": 4139,
      "##là": 4140,
      "xoài": 4141,
      "Ki": 4142,
      "lén": 4143,
      "thục": 4144,
      "Sky": 4145,
      "ngẫu": 4146,
      "2.0": 4147,
      "Post": 4148,
      "lung": 4149,
      "ươm": 4150,
      "Trâm": 4151,
      "Lớn": 4152,
      "thỏ": 4153,
      "Gặp": 4154,
      "rạch": 4155,
      "vun": 4156,
      "vaccine": 4157,
      "rớt": 4158,
      "gạt": 4159,
      "Dậu": 4160,
      "##Nậm": 4161,
      "1980": 4162,
      "link": 4163,
      "115": 4164,
      "nang": 4165,
      "mươi": 4166,
      "gừng": 4167,
      "sào": 4168,
      "mập": 4169,
      "Hoả": 4170,
      "uốn": 4171,
      "à": 4172,
      "##Y": 4173,
      "SV": 4174,
      "1991": 4175,
      "1/5": 4176,
      "NSNN": 4177,
      "Sắp": 4178,
      "Sơ": 4179,
      "7%": 4180,
      "Thao": 4181,
      "chen": 4182,
      "Bitcoin": 4183,
      "##us": 4184,
      "HNX": 4185,
      "##16": 4186,
      "XK": 4187,
      "ANTT": 4188,
      "xì": 4189,
      "Giống": 4190,
      "76": 4191,
      "ách": 4192,
      "84": 4193,
      "Hoan": 4194,
      "Bánh": 4195,
      "##ường": 4196,
      "Luân": 4197,
      "thỉnh": 4198,
      "##háo": 4199,
      "CNVCLĐ": 4200,
      "li": 4201,
      "Chống": 4202,
      "diesel": 4203,
      "bồ": 4204,
      "hẻm": 4205,
      "Global": 4206,
      "ti": 4207,
      "Uống": 4208,
      "chọc": 4209,
      "giư": 4210,
      "Chồng": 4211,
      "Mang": 4212,
      "nốt": 4213,
      "www": 4214,
      "phở": 4215,
      "chén": 4216,
      "ngần": 4217,
      "Robert": 4218,
      "Khôi": 4219,
      "Mike": 4220,
      "Nadal": 4221,
      "##-400": 4222,
      "PPP": 4223,
      "Chăn": 4224,
      "tấu": 4225,
      "Ga": 4226,
      "Sri": 4227,
      "7.000": 4228,
      "hoi": 4229,
      "30/4": 4230,
      "Hoặc": 4231,
      "##Huế": 4232,
      "Duterte": 4233,
      "Go": 4234,
      "Bamboo": 4235,
      "êm": 4236,
      "Hảo": 4237,
      "hét": 4238,
      "ASIAD": 4239,
      "as": 4240,
      "Bill": 4241,
      "visa": 4242,
      "Ung": 4243,
      "Martin": 4244,
      "Xu": 4245,
      "93": 4246,
      "87": 4247,
      "Đáp": 4248,
      "Doãn": 4249,
      "rẫy": 4250,
      "Suối": 4251,
      "xoa": 4252,
      "đun": 4253,
      "Tích": 4254,
      "Quần": 4255,
      "giang": 4256,
      "Daily": 4257,
      "by": 4258,
      "tui": 4259,
      "Ea": 4260,
      "Thưởng": 4261,
      "Ranh": 4262,
      "ứ": 4263,
      "83": 4264,
      "One": 4265,
      "89": 4266,
      "##ệt": 4267,
      "giò": 4268,
      "Max": 4269,
      "bén": 4270,
      "nuốt": 4271,
      "gấu": 4272,
      "bệ": 4273,
      "đẫ": 4274,
      "Tầm": 4275,
      "Màn": 4276,
      "khuya": 4277,
      "luâ": 4278,
      "hức": 4279,
      "côi": 4280,
      "chót": 4281,
      "##Xúc": 4282,
      "NTO": 4283,
      "thòi": 4284,
      "cù": 4285,
      "sọ": 4286,
      "Federer": 4287,
      "PH": 4288,
      "ngàng": 4289,
      "##na": 4290,
      "8.000": 4291,
      "Normal": 4292,
      "Oai": 4293,
      "nóc": 4294,
      "is": 4295,
      "Arab": 4296,
      "vác": 4297,
      "Đậu": 4298,
      "GV": 4299,
      "triết": 4300,
      "Merkel": 4301,
      "##12": 4302,
      "tạc": 4303,
      "canxi": 4304,
      "xí": 4305,
      "đùi": 4306,
      "f": 4307,
      "nguội": 4308,
      "radar": 4309,
      "Young": 4310,
      "##la": 4311,
      "78": 4312,
      "cối": 4313,
      "##ập": 4314,
      "khắt": 4315,
      "125": 4316,
      "sắn": 4317,
      "Cốc": 4318,
      "Lâu": 4319,
      "Lái": 4320,
      "Đăk": 4321,
      "nhược": 4322,
      "Thuốc": 4323,
      "đò": 4324,
      "Khác": 4325,
      "Mạc": 4326,
      "rốt": 4327,
      "phím": 4328,
      "trù": 4329,
      "lẫy": 4330,
      "Vinpearl": 4331,
      "Kurd": 4332,
      "sừng": 4333,
      "náo": 4334,
      "Giàng": 4335,
      "2.500": 4336,
      "lũng": 4337,
      "nilon": 4338,
      "LHPN": 4339,
      "00": 4340,
      "xay": 4341,
      "nức": 4342,
      "4%": 4343,
      "Old": 4344,
      "Fed": 4345,
      "Hiểu": 4346,
      "##al": 4347,
      "Cống": 4348,
      "Niê": 4349,
      "America": 4350,
      "BBC": 4351,
      "cẩm": 4352,
      "Bão": 4353,
      "Green": 4354,
      "Chúa": 4355,
      "vùi": 4356,
      "China": 4357,
      "Đôn": 4358,
      "98": 4359,
      "Đảm": 4360,
      "hốt": 4361,
      "1986": 4362,
      "Johnson": 4363,
      "Utd": 4364,
      "Ankara": 4365,
      "phao": 4366,
      "Rang": 4367,
      "UBKT": 4368,
      "Instagram": 4369,
      "choáng": 4370,
      "Ho": 4371,
      "TU": 4372,
      "Bính": 4373,
      "mông": 4374,
      "nạ": 4375,
      "huyê": 4376,
      "Star": 4377,
      "St": 4378,
      "Si": 4379,
      "rãnh": 4380,
      "WEF": 4381,
      "Tướng": 4382,
      "Thức": 4383,
      "Đen": 4384,
      "hãm": 4385,
      "suýt": 4386,
      "TKV": 4387,
      "2/3": 4388,
      "KSND": 4389,
      "Đời": 4390,
      "Pompeo": 4391,
      "miệt": 4392,
      "Ngài": 4393,
      "##en": 4394,
      "xoắn": 4395,
      "dai": 4396,
      "tr": 4397,
      "Khe": 4398,
      "Tel": 4399,
      "sành": 4400,
      "##-2015": 4401,
      "Cánh": 4402,
      "Nguyê": 4403,
      "lờ": 4404,
      "Cờ": 4405,
      "be": 4406,
      "##ở": 4407,
      "Thắm": 4408,
      "Mũi": 4409,
      "xào": 4410,
      "Suốt": 4411,
      "Khá": 4412,
      "nghê": 4413,
      "Món": 4414,
      "Xương": 4415,
      "1000": 4416,
      "SIM": 4417,
      "ch": 4418,
      "Đê": 4419,
      "170": 4420,
      "nha": 4421,
      "nhồi": 4422,
      "Tuân": 4423,
      "Nigeria": 4424,
      "nộ": 4425,
      "sấy": 4426,
      "ngậm": 4427,
      "Vài": 4428,
      "Vai": 4429,
      "á": 4430,
      "Kính": 4431,
      "TQ": 4432,
      "Mẫn": 4433,
      "Thai": 4434,
      "nọ": 4435,
      "bìa": 4436,
      "p": 4437,
      "##ne": 4438,
      "1989": 4439,
      "Crimea": 4440,
      "chiên": 4441,
      "đu": 4442,
      "4,5": 4443,
      "Ta": 4444,
      "file": 4445,
      "luộc": 4446,
      "Niề": 4447,
      "khoanh": 4448,
      "id": 4449,
      "rách": 4450,
      "CTCP": 4451,
      "Cực": 4452,
      "khâ": 4453,
      "SUV": 4454,
      "lọ": 4455,
      "nhục": 4456,
      "sim": 4457,
      "xài": 4458,
      "##17": 4459,
      "5.4": 4460,
      "Lá": 4461,
      "phác": 4462,
      "ngoặt": 4463,
      "rã": 4464,
      "Xế": 4465,
      "Zidane": 4466,
      "Tốt": 4467,
      "Ngọ": 4468,
      "135": 4469,
      "AP": 4470,
      "rầm": 4471,
      "8%": 4472,
      "108": 4473,
      "tạt": 4474,
      "phà": 4475,
      "Vượ": 4476,
      "Cầm": 4477,
      "Pha": 4478,
      "BĐBP": 4479,
      "##40": 4480,
      "rạn": 4481,
      "vá": 4482,
      "Macron": 4483,
      "##um": 4484,
      "Garden": 4485,
      "1,8": 4486,
      "1988": 4487,
      "vỗ": 4488,
      "Rạch": 4489,
      "ủi": 4490,
      "giông": 4491,
      "2015-2020": 4492,
      "Saigon": 4493,
      "Play": 4494,
      "google": 4495,
      "thèm": 4496,
      "Tuyền": 4497,
      "Hán": 4498,
      "thạo": 4499,
      "450": 4500,
      "Link": 4501,
      "Lanka": 4502,
      "ghét": 4503,
      "Maduro": 4504,
      "gõ": 4505,
      "rùa": 4506,
      "rụng": 4507,
      "##ất": 4508,
      "##son": 4509,
      "xăm": 4510,
      "Hưởng": 4511,
      "Nhu": 4512,
      "Bale": 4513,
      "Trân": 4514,
      "QLTT": 4515,
      "12%": 4516,
      "Plaza": 4517,
      "Bông": 4518,
      "1,6": 4519,
      "220": 4520,
      "vắt": 4521,
      "Cù": 4522,
      "tro": 4523,
      "bú": 4524,
      "Miếu": 4525,
      "Dortmund": 4526,
      "6-7": 4527,
      "liêm": 4528,
      "Thuột": 4529,
      "CA": 4530,
      "##-1": 4531,
      "Niên": 4532,
      "thươ": 4533,
      "nể": 4534,
      "Tá": 4535,
      "Can": 4536,
      "Los": 4537,
      "##NONE": 4538,
      "nhuộm": 4539,
      "nấy": 4540,
      "hít": 4541,
      "Cạnh": 4542,
      "Giọng": 4543,
      "Xổ": 4544,
      "Guardiola": 4545,
      "Nổi": 4546,
      "3-0": 4547,
      "bừa": 4548,
      "đúp": 4549,
      "dang": 4550,
      "cày": 4551,
      "GDĐT": 4552,
      "Bổ": 4553,
      "Tưởng": 4554,
      "lúng": 4555,
      "Vành": 4556,
      "##F": 4557,
      "VP": 4558,
      "Show": 4559,
      "LED": 4560,
      "ghe": 4561,
      "150.000": 4562,
      "ngài": 4563,
      "Mối": 4564,
      "Kia": 4565,
      "Đấu": 4566,
      "Chọn": 4567,
      "Jose": 4568,
      "sà": 4569,
      "Sam": 4570,
      "bẻ": 4571,
      "BTS": 4572,
      "Nô": 4573,
      "Nhạ": 4574,
      "bã": 4575,
      "##Tuỳ": 4576,
      "kiêng": 4577,
      "1,4": 4578,
      "ngạt": 4579,
      "##th": 4580,
      "4-5": 4581,
      "DNNN": 4582,
      "##R": 4583,
      "Kênh": 4584,
      "MW": 4585,
      "khiê": 4586,
      "Leicester": 4587,
      "Cứu": 4588,
      "Victoria": 4589,
      "75%": 4590,
      "thính": 4591,
      "Tượng": 4592,
      "rập": 4593,
      "Maria": 4594,
      "Nhớ": 4595,
      "TANDTC": 4596,
      "Krông": 4597,
      "dưng": 4598,
      "##trong": 4599,
      "Bangladesh": 4600,
      "Djokovic": 4601,
      "1987": 4602,
      "hóa": 4603,
      "Pháo": 4604,
      "Home": 4605,
      "##/11/2018": 4606,
      "Trafford": 4607,
      "lẩn": 4608,
      "Chư": 4609,
      "óc": 4610,
      "##ấu": 4611,
      "hươ": 4612,
      "cuộn": 4613,
      "##TP": 4614,
      "1/4": 4615,
      "Tấm": 4616,
      "cớ": 4617,
      "Đợt": 4618,
      "##-3": 4619,
      "Cang": 4620,
      "thốn": 4621,
      "BTV": 4622,
      "Toạ": 4623,
      "râu": 4624,
      "quế": 4625,
      "VinaPhone": 4626,
      "##BTC": 4627,
      "Vui": 4628,
      "Phản": 4629,
      "mâ": 4630,
      "Suzuki": 4631,
      "Solskjaer": 4632,
      "RAM": 4633,
      "Berlin": 4634,
      "am": 4635,
      "at": 4636,
      "Lão": 4637,
      "1985": 4638,
      "Bờ": 4639,
      "Sudan": 4640,
      "Thác": 4641,
      "kệ": 4642,
      "Ri": 4643,
      "toa": 4644,
      "búp": 4645,
      "PVC": 4646,
      "TB": 4647,
      "Kiev": 4648,
      "hấu": 4649,
      "Nỗi": 4650,
      "run": 4651,
      "Li": 4652,
      "USS": 4653,
      "rổ": 4654,
      "nung": 4655,
      "Dấu": 4656,
      "##do": 4657,
      "CATP": 4658,
      "ACB": 4659,
      "60.000": 4660,
      "hưng": 4661,
      "6%": 4662,
      "lượn": 4663,
      "SLNA": 4664,
      "35%": 4665,
      "Erdogan": 4666,
      "Hường": 4667,
      "Brunei": 4668,
      "dạt": 4669,
      "Chiêm": 4670,
      "PL": 4671,
      "Shinzo": 4672,
      "Suarez": 4673,
      "VEC": 4674,
      "Hi": 4675,
      "##tstyle": 4676,
      "Kha": 4677,
      "Bloomberg": 4678,
      "Black": 4679,
      "Vấp": 4680,
      "gầy": 4681,
      "ấu": 4682,
      "LS": 4683,
      "##14": 4684,
      "IX": 4685,
      "Vietnamese": 4686,
      "sầu": 4687,
      "1/2": 4688,
      "ướp": 4689,
      "liveshow": 4690,
      "VIII": 4691,
      "Rà": 4692,
      "Jack": 4693,
      "Costa": 4694,
      "xé": 4695,
      "Ng": 4696,
      "##rót": 4697,
      "Rau": 4698,
      "##up": 4699,
      "##-2018": 4700,
      "Giữ": 4701,
      "Màu": 4702,
      "##/08/2019": 4703,
      "bới": 4704,
      "##ation": 4705,
      "kìm": 4706,
      "400.000": 4707,
      "Hới": 4708,
      "Nuôi": 4709,
      "loét": 4710,
      "thuô": 4711,
      "mg": 4712,
      "mủ": 4713,
      "##oC": 4714,
      "2016-2021": 4715,
      "96": 4716,
      "xịt": 4717,
      "bọt": 4718,
      "12.000": 4719,
      "##các": 4720,
      "##ẩy": 4721,
      "ế": 4722,
      "cưng": 4723,
      "Daniel": 4724,
      "IMF": 4725,
      "Uruguay": 4726,
      "xáo": 4727,
      "ngứa": 4728,
      "tà": 4729,
      "yến": 4730,
      "phẫ": 4731,
      "Chải": 4732,
      "giòn": 4733,
      "Thụ": 4734,
      "Petrolimex": 4735,
      "Forbes": 4736,
      "nản": 4737,
      "nành": 4738,
      "Lớp": 4739,
      "gam": 4740,
      "##01": 4741,
      "Trợ": 4742,
      "Vu": 4743,
      "EC": 4744,
      "##Triều": 4745,
      "trũng": 4746,
      "105": 4747,
      "vu": 4748,
      "Nền": 4749,
      "Dạ": 4750,
      "Vina": 4751,
      "thiều": 4752,
      "HQ": 4753,
      "Phục": 4754,
      "Airbus": 4755,
      "Ia": 4756,
      "Tho": 4757,
      "LLVT": 4758,
      "đấm": 4759,
      "Ali": 4760,
      "##-2017": 4761,
      "laptop": 4762,
      "rơm": 4763,
      "sếp": 4764,
      "nghẹn": 4765,
      "Ngã": 4766,
      "logo": 4767,
      "cội": 4768,
      "cholesterol": 4769,
      "Thịt": 4770,
      "Angela": 4771,
      "Phái": 4772,
      "thìa": 4773,
      "Lệnh": 4774,
      "Chào": 4775,
      "Nhàn": 4776,
      "ră": 4777,
      "Noel": 4778,
      "PM": 4779,
      "nhuyễn": 4780,
      "##13": 4781,
      "Tơ": 4782,
      "sờ": 4783,
      "##ắt": 4784,
      "Sabeco": 4785,
      "Trưa": 4786,
      "mắng": 4787,
      "chùm": 4788,
      "##Đ": 4789,
      "360": 4790,
      "phật": 4791,
      "Tang": 4792,
      "1979": 4793,
      "thuâ": 4794,
      "tao": 4795,
      "hoán": 4796,
      "Ka": 4797,
      "Miura": 4798,
      "Romania": 4799,
      "đơ": 4800,
      "VNĐ": 4801,
      "Tay": 4802,
      "đao": 4803,
      "CĐCS": 4804,
      "CHDCND": 4805,
      "ANTĐ": 4806,
      "##ửa": 4807,
      "ngửa": 4808,
      "ngơ": 4809,
      "Lừ": 4810,
      "Nobel": 4811,
      "##/07/2019": 4812,
      "Trãi": 4813,
      "##MT": 4814,
      "Hát": 4815,
      "Zika": 4816,
      "TDTT": 4817,
      "Youtube": 4818,
      "Giế": 4819,
      "Awards": 4820,
      "nón": 4821,
      "Giêng": 4822,
      "hóc": 4823,
      "##11": 4824,
      "cúc": 4825,
      "Thạc": 4826,
      "##Lào": 4827,
      "Lã": 4828,
      "98%": 4829,
      "hacker": 4830,
      "OCOP": 4831,
      "Justin": 4832,
      "Lukaku": 4833,
      "Nhập": 4834,
      "thắm": 4835,
      "NASA": 4836,
      "25.000": 4837,
      "1,1": 4838,
      "khỉ": 4839,
      "Giảng": 4840,
      "să": 4841,
      "Club": 4842,
      "##ắm": 4843,
      "chớp": 4844,
      "Tràm": 4845,
      "Ebola": 4846,
      "tản": 4847,
      "cưa": 4848,
      "Rẫy": 4849,
      "Sacombank": 4850,
      "Đệ": 4851,
      "bịt": 4852,
      "Lậy": 4853,
      "LHP": 4854,
      "1984": 4855,
      "nhủ": 4856,
      "BQL": 4857,
      "tăm": 4858,
      "Valencia": 4859,
      "chảo": 4860,
      "Xa": 4861,
      "Căng": 4862,
      "PLVN": 4863,
      "voluptate": 4864,
      "bênh": 4865,
      "Fansipan": 4866,
      "Luis": 4867,
      "Viet": 4868,
      "ADB": 4869,
      "Wall": 4870,
      "Quách": 4871,
      "Truy": 4872,
      "24/7": 4873,
      "dè": 4874,
      "Pep": 4875,
      "NXB": 4876,
      "##.000": 4877,
      "khốn": 4878,
      "Thomas": 4879,
      "Kịch": 4880,
      "resort": 4881,
      "Pleiku": 4882,
      "##92": 4883,
      "xuồng": 4884,
      "Khmer": 4885,
      "1,7": 4886,
      "sán": 4887,
      "Un": 4888,
      "Nepal": 4889,
      "Sport": 4890,
      "sấu": 4891,
      "Thôn": 4892,
      "phôi": 4893,
      "Xứ": 4894,
      "vòm": 4895,
      "Bè": 4896,
      "CR": 4897,
      "Nguyen": 4898,
      "Tý": 4899,
      "##z": 4900,
      "737": 4901,
      "mỉ": 4902,
      "hả": 4903,
      "dầm": 4904,
      "Láng": 4905,
      "xư": 4906,
      "Tòng": 4907,
      "##để": 4908,
      "uất": 4909,
      "cược": 4910,
      "NG": 4911,
      "Smart": 4912,
      "GM": 4913,
      "8/3": 4914,
      "Tom": 4915,
      "tảo": 4916,
      "ĐVTN": 4917,
      "FBI": 4918,
      "Mobile": 4919,
      "##-2": 4920,
      "NĐ": 4921,
      "1970": 4922,
      "Rập": 4923,
      "thản": 4924,
      "KCB": 4925,
      "##ặng": 4926,
      "94": 4927,
      "##Q": 4928,
      "CAND": 4929,
      "ngả": 4930,
      "Open": 4931,
      "viền": 4932,
      "Tốc": 4933,
      "Xăng": 4934,
      "chèn": 4935,
      "##to": 4936,
      "toan": 4937,
      "##men": 4938,
      "HDBank": 4939,
      "Salah": 4940,
      "Dẫn": 4941,
      "xắn": 4942,
      "Serie": 4943,
      "Hỏi": 4944,
      "chợt": 4945,
      "Thử": 4946,
      "búa": 4947,
      "Bê": 4948,
      "ĐTQG": 4949,
      "##xin": 4950,
      "##ic": 4951,
      "Audi": 4952,
      "hông": 4953,
      "Cấm": 4954,
      "Eximbank": 4955,
      "EURO": 4956,
      "Chẽ": 4957,
      "Sóng": 4958,
      "Techcombank": 4959,
      "1/10": 4960,
      "Cristiano": 4961,
      "3-1": 4962,
      "Gea": 4963,
      "CO": 4964,
      "nhã": 4965,
      "xảo": 4966,
      "Tức": 4967,
      "khoả": 4968,
      "Copa": 4969,
      "SGK": 4970,
      "trau": 4971,
      "FED": 4972,
      "Nissan": 4973,
      "##ma": 4974,
      "1/7": 4975,
      "Xát": 4976,
      "lừng": 4977,
      "Cơn": 4978,
      "Gương": 4979,
      "Bỏ": 4980,
      "Tả": 4981,
      "Bia": 4982,
      "Min": 4983,
      "Roma": 4984,
      "1.300": 4985,
      "gập": 4986,
      "1968": 4987,
      "George": 4988,
      "Biến": 4989,
      "2-2": 4990,
      "0,5": 4991,
      "US": 4992,
      "ngừ": 4993,
      "##le": 4994,
      "ngà": 4995,
      "##-2013": 4996,
      "Power": 4997,
      "Lạ": 4998,
      "##center": 4999,
      "KHCN": 5000,
      "##align": 5001,
      "Đám": 5002,
      "giục": 5003,
      "1983": 5004,
      "bọ": 5005,
      "chánh": 5006,
      "ngán": 5007,
      "1972": 5008,
      "chài": 5009,
      "gân": 5010,
      "chững": 5011,
      "VIDEO": 5012,
      "Gây": 5013,
      "nê": 5014,
      "align": 5015,
      "Florida": 5016,
      "BLHS": 5017,
      "Đóng": 5018,
      "mư": 5019,
      "Mái": 5020,
      "gâ": 5021,
      "OPEC": 5022,
      "##7%": 5023,
      "Ben": 5024,
      "Dẫu": 5025,
      "Vọng": 5026,
      "quặng": 5027,
      "Jakarta": 5028,
      "Sputnik": 5029,
      "Xí": 5030,
      "Hạn": 5031,
      "Tan": 5032,
      "Zing": 5033,
      "##ttachment": 5034,
      "Nhắ": 5035,
      "trư": 5036,
      "MB": 5037,
      "cụt": 5038,
      "that": 5039,
      "mỳ": 5040,
      "bỉ": 5041,
      "bướu": 5042,
      "##q": 5043,
      "##không": 5044,
      "Đặt": 5045,
      "ngắt": 5046,
      "nư": 5047,
      "đả": 5048,
      "truyê": 5049,
      "Gạo": 5050,
      "Đèo": 5051,
      "Thoa": 5052,
      "Tống": 5053,
      "ẩu": 5054,
      "Sergei": 5055,
      "Toản": 5056,
      "len": 5057,
      "chòi": 5058,
      "tỉa": 5059,
      "Mail": 5060,
      "Tà": 5061,
      "rưỡi": 5062,
      "2018-2019": 5063,
      "bực": 5064,
      "Tội": 5065,
      "xó": 5066,
      "Central": 5067,
      "3-5": 5068,
      "Jean": 5069,
      "tí": 5070,
      "mãnh": 5071,
      "Duẩn": 5072,
      "ngây": 5073,
      "Juan": 5074,
      "1976": 5075,
      "Taliban": 5076,
      "##BS": 5077,
      "Peter": 5078,
      "quỳ": 5079,
      "DOC": 5080,
      "scandal": 5081,
      "giỏ": 5082,
      "70.000": 5083,
      "from": 5084,
      "389": 5085,
      "80.000": 5086,
      "Idlib": 5087,
      "128": 5088,
      "ả": 5089,
      "Camp": 5090,
      "97": 5091,
      "hủ": 5092,
      "Klopp": 5093,
      "Kremlin": 5094,
      "HA": 5095,
      "nhị": 5096,
      "té": 5097,
      "##,7%": 5098,
      "yes": 5099,
      "sưa": 5100,
      "##-22": 5101,
      "Center": 5102,
      "nập": 5103,
      "Chàng": 5104,
      "Intel": 5105,
      "2019-2020": 5106,
      "Canh": 5107,
      "NGUY": 5108,
      "liê": 5109,
      "1-3": 5110,
      "SE": 5111,
      "nến": 5112,
      "nhốt": 5113,
      "Dong": 5114,
      "Trươ": 5115,
      "Lư": 5116,
      "Chín": 5117,
      "Đốc": 5118,
      "PCI": 5119,
      "Griezmann": 5120,
      "Tr": 5121,
      "trổ": 5122,
      "ISO": 5123,
      "Khiêm": 5124,
      "Lức": 5125,
      "THADS": 5126,
      "gò": 5127,
      "khiết": 5128,
      "##-2014": 5129,
      "BĐ": 5130,
      "Cannes": 5131,
      "##da": 5132,
      "Ngà": 5133,
      "loãng": 5134,
      "NTK": 5135,
      "Lãng": 5136,
      "Liễu": 5137,
      "Belarus": 5138,
      "##W": 5139,
      "dặm": 5140,
      "##/10/2018": 5141,
      "Trồng": 5142,
      "Hotel": 5143,
      "Ham": 5144,
      "Hiê": 5145,
      "nhă": 5146,
      "giỗ": 5147,
      "Chan": 5148,
      "chằng": 5149,
      "##ton": 5150,
      "sỡ": 5151,
      "##land": 5152,
      "Đoan": 5153,
      "Wenger": 5154,
      "Brussels": 5155,
      "trâ": 5156,
      "TTTĐ": 5157,
      "1/6": 5158,
      "Theresa": 5159,
      "cạ": 5160,
      "miện": 5161,
      "##Mỹ": 5162,
      "BCĐ": 5163,
      "méo": 5164,
      "Alexander": 5165,
      "Manila": 5166,
      "tòi": 5167,
      "Đỉnh": 5168,
      "Bàu": 5169,
      "trói": 5170,
      "65%": 5171,
      "##ực": 5172,
      "ngòi": 5173,
      "##ảng": 5174,
      "Europa": 5175,
      "Silva": 5176,
      "phàn": 5177,
      "HCB": 5178,
      "##QH": 5179,
      "Hết": 5180,
      "Uzbekistan": 5181,
      "CB": 5182,
      "##với": 5183,
      "cúi": 5184,
      "khoái": 5185,
      "Novaland": 5186,
      "thuở": 5187,
      "Thiệu": 5188,
      "##ông": 5189,
      "Rio": 5190,
      "##Nhật": 5191,
      "CIA": 5192,
      "stress": 5193,
      "Vitamin": 5194,
      "Wi": 5195,
      "45%": 5196,
      "##net": 5197,
      "##ữa": 5198,
      "lầy": 5199,
      "USB": 5200,
      "Algeria": 5201,
      "giáng": 5202,
      "##LĐ": 5203,
      "1981": 5204,
      "Vinalines": 5205,
      "##/09/2019": 5206,
      "Hóc": 5207,
      "Trò": 5208,
      "NV": 5209,
      "Dubai": 5210,
      "gắm": 5211,
      "Aleppo": 5212,
      "Xung": 5213,
      "Bulgaria": 5214,
      "trêu": 5215,
      "tuyê": 5216,
      "85%": 5217,
      "liễu": 5218,
      "102": 5219,
      "Phí": 5220,
      "girl": 5221,
      "24/24": 5222,
      "Gươm": 5223,
      "DA": 5224,
      "Bang": 5225,
      "Fox": 5226,
      "Khán": 5227,
      "Super": 5228,
      "Mất": 5229,
      "BSR": 5230,
      "Pu": 5231,
      "5,5": 5232,
      "gô": 5233,
      "Giả": 5234,
      "đọ": 5235,
      "##-23": 5236,
      "6,5": 5237,
      "Hye": 5238,
      "will": 5239,
      "lóc": 5240,
      "UEFA": 5241,
      "nguyệt": 5242,
      "Nho": 5243,
      "Lexus": 5244,
      "phụng": 5245,
      "calo": 5246,
      "COC": 5247,
      "trặc": 5248,
      "Angeles": 5249,
      "biếu": 5250,
      "##iềm": 5251,
      "240": 5252,
      "Đón": 5253,
      "ruồi": 5254,
      "niệu": 5255,
      "Ethiopia": 5256,
      "mí": 5257,
      "7,5": 5258,
      "VPCP": 5259,
      "30/6": 5260,
      "mứt": 5261,
      "hen": 5262,
      "Vẻ": 5263,
      "võng": 5264,
      "##công": 5265,
      "7-8": 5266,
      "Vỹ": 5267,
      "SH": 5268,
      "Castro": 5269,
      "CV": 5270,
      "1978": 5271,
      "Sương": 5272,
      "Alex": 5273,
      "Xi": 5274,
      "##ạo": 5275,
      "Lavrov": 5276,
      "vắcxin": 5277,
      "Mitsubishi": 5278,
      "2,2": 5279,
      "ph": 5280,
      "VII": 5281,
      "quýt": 5282,
      "nhịn": 5283,
      "Đấy": 5284,
      "lều": 5285,
      "Hun": 5286,
      "Hanoi": 5287,
      "11%": 5288,
      "##ml": 5289,
      "Jerusalem": 5290,
      "hùm": 5291,
      "1973": 5292,
      "ray": 5293,
      "HCĐ": 5294,
      "quất": 5295,
      "TCTD": 5296,
      "MAX": 5297,
      "VPBank": 5298,
      "ốp": 5299,
      "bus": 5300,
      "Incheon": 5301,
      "Won": 5302,
      "AC": 5303,
      "Lotte": 5304,
      "lù": 5305,
      "103": 5306,
      "marketing": 5307,
      "Gói": 5308,
      "Dệt": 5309,
      "ỏi": 5310,
      "VHTT": 5311,
      "1960": 5312,
      "Yong": 5313,
      "##sẽ": 5314,
      "Nỗ": 5315,
      "chích": 5316,
      "##/2009": 5317,
      "Zuckerberg": 5318,
      "Dàn": 5319,
      "Đương": 5320,
      "thề": 5321,
      "giằ": 5322,
      "Gaza": 5323,
      "##ầu": 5324,
      "KKT": 5325,
      "9%": 5326,
      "chập": 5327,
      "cabin": 5328,
      "dứa": 5329,
      "Steve": 5330,
      "Tỉ": 5331,
      "sá": 5332,
      "Xê": 5333,
      "thêu": 5334,
      "ngao": 5335,
      "thung": 5336,
      "chuộc": 5337,
      "lì": 5338,
      "Ecuador": 5339,
      "na": 5340,
      "mẫn": 5341,
      "UNCLOS": 5342,
      "Sevilla": 5343,
      "thoa": 5344,
      "10/10": 5345,
      "Mắt": 5346,
      "ki": 5347,
      "gi": 5348,
      "trá": 5349,
      "113": 5350,
      "nghẹt": 5351,
      "Vietlott": 5352,
      "vạ": 5353,
      "quấn": 5354,
      "Tế": 5355,
      "gă": 5356,
      "##top": 5357,
      "quỷ": 5358,
      "Luận": 5359,
      "##Vũng": 5360,
      "Nắng": 5361,
      "Quê": 5362,
      "2017-2018": 5363,
      "Serbia": 5364,
      "NCT": 5365,
      "Bo": 5366,
      "Bồng": 5367,
      "bung": 5368,
      "14%": 5369,
      "##-2012": 5370,
      "Tuệ": 5371,
      "Cỏ": 5372,
      "Saint": 5373,
      "GTGT": 5374,
      "trĩ": 5375,
      "CQĐT": 5376,
      "ghê": 5377,
      "##ưng": 5378,
      "UB": 5379,
      "Chức": 5380,
      "Dần": 5381,
      "dì": 5382,
      "rỗi": 5383,
      "Hillary": 5384,
      "gót": 5385,
      "Giây": 5386,
      "MP": 5387,
      "trè": 5388,
      "TGĐ": 5389,
      "101": 5390,
      "Media": 5391,
      "600.000": 5392,
      "Sydney": 5393,
      "##370": 5394,
      "Khúc": 5395,
      "24/2": 5396,
      "gàng": 5397,
      "Hoằ": 5398,
      "Sports": 5399,
      "like": 5400,
      "230": 5401,
      "Thaco": 5402,
      "Sai": 5403,
      "PCTN": 5404,
      "ADN": 5405,
      "116": 5406,
      "line": 5407,
      "lựu": 5408,
      "has": 5409,
      "gang": 5410,
      "ếch": 5411,
      "bụ": 5412,
      "##3%": 5413,
      "Rooney": 5414,
      "Giú": 5415,
      "â": 5416,
      "5/9": 5417,
      "Wales": 5418,
      "tuô": 5419,
      "VPF": 5420,
      "##kV": 5421,
      "lay": 5422,
      "5-6": 5423,
      "ngóng": 5424,
      "Lionel": 5425,
      "sòng": 5426,
      "quây": 5427,
      "xua": 5428,
      "Gà": 5429,
      "chă": 5430,
      "Gold": 5431,
      "hit": 5432,
      "ASEM": 5433,
      "vãn": 5434,
      "đù": 5435,
      "Jolie": 5436,
      "Nou": 5437,
      "diều": 5438,
      "Giàu": 5439,
      "1945": 5440,
      "Damascus": 5441,
      "Phạt": 5442,
      "250.000": 5443,
      "Chạy": 5444,
      "rảnh": 5445,
      "Thơm": 5446,
      "Louis": 5447,
      "Chris": 5448,
      "nhăn": 5449,
      "##tại": 5450,
      "##/2013": 5451,
      "miếu": 5452,
      "Tày": 5453,
      "PT": 5454,
      "lanh": 5455,
      "xiếc": 5456,
      "1974": 5457,
      "Tour": 5458,
      "váng": 5459,
      "OceanBank": 5460,
      "miên": 5461,
      "Mỏ": 5462,
      "0-0": 5463,
      "HTC": 5464,
      "bikini": 5465,
      "lửng": 5466,
      "Pharma": 5467,
      "Everton": 5468,
      "lầu": 5469,
      "South": 5470,
      "BHTN": 5471,
      "FA": 5472,
      "Texas": 5473,
      "Kháng": 5474,
      "Vietinbank": 5475,
      "Sâm": 5476,
      "CCHC": 5477,
      "9.000": 5478,
      "GAS": 5479,
      "Cuốn": 5480,
      "Gates": 5481,
      "Rừng": 5482,
      "phiêu": 5483,
      "hoay": 5484,
      "BVPL": 5485,
      "TPBank": 5486,
      "##/9/2018": 5487,
      "##út": 5488,
      "ĐÂY": 5489,
      "mau": 5490,
      "ngục": 5491,
      "##il": 5492,
      "320": 5493,
      "HP": 5494,
      "Yonhap": 5495,
      "##ỗ": 5496,
      "##Tân": 5497,
      "##ốc": 5498,
      "##left": 5499,
      "sum": 5500,
      "miêu": 5501,
      "kẽm": 5502,
      "Thẻ": 5503,
      "Yang": 5504,
      "Han": 5505,
      "3-2": 5506,
      "Mơ": 5507,
      "Tặng": 5508,
      "Store": 5509,
      "1.600": 5510,
      "Panama": 5511,
      "Yamaha": 5512,
      "Village": 5513,
      "Business": 5514,
      "Diên": 5515,
      "sưởi": 5516,
      "Kuala": 5517,
      "Face": 5518,
      "Khung": 5519,
      "model": 5520,
      "mép": 5521,
      "Zalo": 5522,
      "đàng": 5523,
      "chiêng": 5524,
      "Me": 5525,
      "thốt": 5526,
      "18%": 5527,
      "LĐTĐ": 5528,
      "nh": 5529,
      "TC": 5530,
      "ACV": 5531,
      "Bahrain": 5532,
      "Tóc": 5533,
      "nă": 5534,
      "##Ronaldo": 5535,
      "Jones": 5536,
      "SXH": 5537,
      "tưng": 5538,
      "##ro": 5539,
      "##:": 5540,
      "##ắc": 5541,
      "bầm": 5542,
      "Nhị": 5543,
      "ngùi": 5544,
      "sẹo": 5545,
      "Góp": 5546,
      "bẩy": 5547,
      "mải": 5548,
      "Best": 5549,
      "##9%": 5550,
      "nần": 5551,
      "Diego": 5552,
      "Ni": 5553,
      "Hotline": 5554,
      "VNA": 5555,
      "13%": 5556,
      "Lưới": 5557,
      "3.500": 5558,
      "TNCS": 5559,
      "gật": 5560,
      "khoát": 5561,
      "99%": 5562,
      "Luyện": 5563,
      "acid": 5564,
      "Tần": 5565,
      "bin": 5566,
      "##ka": 5567,
      "xốp": 5568,
      "1969": 5569,
      "ầm": 5570,
      "##/11/2016": 5571,
      "5-7": 5572,
      "cộm": 5573,
      "trút": 5574,
      "Quỳ": 5575,
      "Đẫy": 5576,
      "Xiaomi": 5577,
      "said": 5578,
      "1977": 5579,
      "##MP": 5580,
      "##Thuận": 5581,
      "##/2010": 5582,
      "Delhi": 5583,
      "check": 5584,
      "giun": 5585,
      "dươ": 5586,
      "VAT": 5587,
      "##-20": 5588,
      "##25": 5589,
      "Antonio": 5590,
      "##ấp": 5591,
      "Lumpur": 5592,
      "ngói": 5593,
      "##/10/2017": 5594,
      "Ngồ": 5595,
      "cõi": 5596,
      "muỗng": 5597,
      "Chữa": 5598,
      "vẫy": 5599,
      "Mộ": 5600,
      "Napoli": 5601,
      "tẩ": 5602,
      "Cu": 5603,
      "Rashford": 5604,
      "1.400": 5605,
      "Asanzo": 5606,
      "Kerry": 5607,
      "rưng": 5608,
      "bồng": 5609,
      "##ies": 5610,
      "Lố": 5611,
      "môtô": 5612,
      "Prime": 5613,
      "TĐC": 5614,
      "BXH": 5615,
      "rằm": 5616,
      "Bkav": 5617,
      "Hills": 5618,
      "carbon": 5619,
      "UBTVQH": 5620,
      "Metro": 5621,
      "Vinmec": 5622,
      "Coutinho": 5623,
      "Camera": 5624,
      "Juve": 5625,
      "xít": 5626,
      "quia": 5627,
      "##ồng": 5628,
      "##ia": 5629,
      "INF": 5630,
      "XS": 5631,
      "Style": 5632,
      "Ngôn": 5633,
      "Jin": 5634,
      "##ca": 5635,
      "xộn": 5636,
      "175": 5637,
      "Royal": 5638,
      "2,3": 5639,
      "AS": 5640,
      "hâ": 5641,
      "Fidel": 5642,
      "lười": 5643,
      "Timor": 5644,
      "fanpage": 5645,
      "ngấm": 5646,
      "Cook": 5647,
      "National": 5648,
      "8-9": 5649,
      "Nụ": 5650,
      "2050": 5651,
      "bèo": 5652,
      "oz": 5653,
      "Kane": 5654,
      "đẽ": 5655,
      "spa": 5656,
      "Email": 5657,
      "Thoại": 5658,
      "Mật": 5659,
      "##Hà": 5660,
      "chớ": 5661,
      "16%": 5662,
      "se": 5663,
      "mượt": 5664,
      "HN": 5665,
      "##95": 5666,
      "##family": 5667,
      "Tower": 5668,
      "chạp": 5669,
      "noi": 5670,
      "CNVC": 5671,
      "35.000": 5672,
      "##24": 5673,
      "nhổ": 5674,
      "nhang": 5675,
      "rốn": 5676,
      "CNC": 5677,
      "XNK": 5678,
      "GT": 5679,
      "Palace": 5680,
      "Sergio": 5681,
      "Joe": 5682,
      "lon": 5683,
      "##ránh": 5684,
      "Iceland": 5685,
      "Hoạ": 5686,
      "CX": 5687,
      "2011-2015": 5688,
      "gội": 5689,
      "op": 5690,
      "xùm": 5691,
      "nghiền": 5692,
      "thon": 5693,
      "nhằn": 5694,
      "tụi": 5695,
      "điếu": 5696,
      "VietGAP": 5697,
      "xê": 5698,
      "chướng": 5699,
      "ngách": 5700,
      "RT": 5701,
      "Crystal": 5702,
      "lợp": 5703,
      "15/8": 5704,
      "Asiad": 5705,
      "két": 5706,
      "Spa": 5707,
      "loay": 5708,
      "shophouse": 5709,
      "phồng": 5710,
      "IoT": 5711,
      "Capital": 5712,
      "##height": 5713,
      "Lu": 5714,
      "Scotland": 5715,
      "Biệt": 5716,
      "17%": 5717,
      "liêu": 5718,
      "##-16": 5719,
      "##2%": 5720,
      "chốc": 5721,
      "Idol": 5722,
      "##right": 5723,
      "##một": 5724,
      "Nicolas": 5725,
      "##-2011": 5726,
      "##ối": 5727,
      "Watch": 5728,
      "Yahoo": 5729,
      "rán": 5730,
      "##-5": 5731,
      "nặc": 5732,
      "Tiệp": 5733,
      "Minister": 5734,
      "##ềm": 5735,
      "cươ": 5736,
      "ve": 5737,
      "laser": 5738,
      "2,7": 5739,
      "kiêu": 5740,
      "Bửu": 5741,
      "Vàm": 5742,
      "thà": 5743,
      "muô": 5744,
      "xước": 5745,
      "Kazakhstan": 5746,
      "Kyo": 5747,
      "sedan": 5748,
      "Slovakia": 5749,
      "##/12/2017": 5750,
      "BVMT": 5751,
      "Gai": 5752,
      "Riverside": 5753,
      "##-8": 5754,
      "nhuần": 5755,
      "mồng": 5756,
      "Vinaconex": 5757,
      "tẻ": 5758,
      "phớ": 5759,
      "112": 5760,
      "nguô": 5761,
      "níu": 5762,
      "William": 5763,
      "Cẩn": 5764,
      "##Nam": 5765,
      "Mù": 5766,
      "ben": 5767,
      "Street": 5768,
      "kẹp": 5769,
      "##f": 5770,
      "nêm": 5771,
      "Czech": 5772,
      "nếm": 5773,
      "mẩn": 5774,
      "Ngự": 5775,
      "2,4": 5776,
      "Angelina": 5777,
      "Be": 5778,
      "vờ": 5779,
      "hiên": 5780,
      "Geneva": 5781,
      "phông": 5782,
      "nú": 5783,
      "1/9": 5784,
      "mận": 5785,
      "##TH": 5786,
      "ml": 5787,
      "Thìn": 5788,
      "đậy": 5789,
      "Kevin": 5790,
      "Viêm": 5791,
      "Cồn": 5792,
      "To": 5793,
      "##tlqbotconten": 5794,
      "Next": 5795,
      "30/9": 5796,
      "Gian": 5797,
      "Red": 5798,
      "##.2017": 5799,
      "chắt": 5800,
      "CMND": 5801,
      "Lên": 5802,
      "Mega": 5803,
      "HOSE": 5804,
      "gồ": 5805,
      "xú": 5806,
      "Phiếu": 5807,
      "nạt": 5808,
      "Gala": 5809,
      "quyện": 5810,
      "oà": 5811,
      "DNNVV": 5812,
      "##1%": 5813,
      "Assad": 5814,
      "dằn": 5815,
      "##li": 5816,
      "CC": 5817,
      "Golden": 5818,
      "Mãi": 5819,
      "20/11": 5820,
      "Phẫ": 5821,
      "mênh": 5822,
      "##CN": 5823,
      "Bưởi": 5824,
      "nơ": 5825,
      "Osaka": 5826,
      "phồn": 5827,
      "Qualcomm": 5828,
      "Huynh": 5829,
      "3/4": 5830,
      "đôla": 5831,
      "Richard": 5832,
      "550": 5833,
      "Rome": 5834,
      "##-19": 5835,
      "Hạng": 5836,
      "kèo": 5837,
      "Nàng": 5838,
      "Model": 5839,
      "GĐ": 5840,
      "Rodriguez": 5841,
      "##-15": 5842,
      "suôn": 5843,
      "nhai": 5844,
      "##-2010": 5845,
      "Luôn": 5846,
      "0-1": 5847,
      "12/6": 5848,
      "mốt": 5849,
      "Nm": 5850,
      "190": 5851,
      "nhét": 5852,
      "quẩn": 5853,
      "huyệt": 5854,
      "5-10": 5855,
      "đư": 5856,
      "Khẩ": 5857,
      "Nhiên": 5858,
      "##iết": 5859,
      "Hổ": 5860,
      "Gạc": 5861,
      "8/8": 5862,
      "Khẳng": 5863,
      "trồ": 5864,
      "pho": 5865,
      "NK": 5866,
      "##/11/2017": 5867,
      "He": 5868,
      "Monaco": 5869,
      "-1": 5870,
      "Thăm": 5871,
      "Lựa": 5872,
      "##Nguyễn": 5873,
      "triền": 5874,
      "ì": 5875,
      "Nghĩ": 5876,
      "##6%": 5877,
      "Lũng": 5878,
      "Guardian": 5879,
      "gáy": 5880,
      "VHTTDL": 5881,
      "condotel": 5882,
      "1.5": 5883,
      "Lọc": 5884,
      "HĐTV": 5885,
      "Dạy": 5886,
      "120.000": 5887,
      "##uột": 5888,
      "tua": 5889,
      "Lũ": 5890,
      "cấn": 5891,
      "Sea": 5892,
      "type": 5893,
      "Răng": 5894,
      "Ajax": 5895,
      "27/7": 5896,
      "650": 5897,
      "Choi": 5898,
      "chói": 5899,
      "Hazard": 5900,
      "##/5/2019": 5901,
      "ngó": 5902,
      "Đạm": 5903,
      "97%": 5904,
      "Conte": 5905,
      "gộp": 5906,
      "THA": 5907,
      "Cự": 5908,
      "TK": 5909,
      "úp": 5910,
      "Sunshine": 5911,
      "Chạp": 5912,
      "tru": 5913,
      "thệ": 5914,
      "NA": 5915,
      "Latinh": 5916,
      "1.800": 5917,
      "1954": 5918,
      "23/9": 5919,
      "Đế": 5920,
      "dioxin": 5921,
      "104": 5922,
      "Scott": 5923,
      "Kê": 5924,
      "GPLX": 5925,
      "Murray": 5926,
      "4/7": 5927,
      "##ẫm": 5928,
      "ut": 5929,
      "Ramos": 5930,
      "114": 5931,
      "Bù": 5932,
      "xỉu": 5933,
      "Thục": 5934,
      "selfie": 5935,
      "Dmitry": 5936,
      "800.000": 5937,
      "LĐBĐ": 5938,
      "khă": 5939,
      "ngổn": 5940,
      "sit": 5941,
      "Ngạn": 5942,
      "##-300": 5943,
      "Ph": 5944,
      "Abu": 5945,
      "Xó": 5946,
      "750": 5947,
      "Index": 5948,
      "SCIC": 5949,
      "260": 5950,
      "SVĐ": 5951,
      "ngời": 5952,
      "##35": 5953,
      "28/6": 5954,
      "QLDA": 5955,
      "Eco": 5956,
      "Emmanuel": 5957,
      "Beach": 5958,
      "##de": 5959,
      "sex": 5960,
      "reo": 5961,
      "Thép": 5962,
      "Thoá": 5963,
      "giă": 5964,
      "##cũng": 5965,
      "lẻo": 5966,
      "2023": 5967,
      "nhào": 5968,
      "Snapdragon": 5969,
      "Bin": 5970,
      "Dữ": 5971,
      "Chang": 5972,
      "DTTS": 5973,
      "Day": 5974,
      "11.000": 5975,
      "phách": 5976,
      "App": 5977,
      "KN": 5978,
      "1967": 5979,
      "KTS": 5980,
      "gym": 5981,
      "##ni": 5982,
      "sexy": 5983,
      "NDT": 5984,
      "Xoan": 5985,
      "##Fi": 5986,
      "15/7": 5987,
      "##go": 5988,
      "Travel": 5989,
      "Aguero": 5990,
      "15/9": 5991,
      "30/8": 5992,
      "thóc": 5993,
      "##alt": 5994,
      "ru": 5995,
      "et": 5996,
      "chuâ": 5997,
      "lán": 5998,
      "Thì": 5999,
      "Mão": 6000,
      "toát": 6001,
      "mớ": 6002,
      "ổi": 6003,
      "up": 6004,
      "SeABank": 6005,
      "Mác": 6006,
      "Điê": 6007,
      "3,2": 6008,
      "Martial": 6009,
      "Mbappe": 6010,
      "VnExpress": 6011,
      "năn": 6012,
      "hòng": 6013,
      "Villa": 6014,
      "107": 6015,
      "thă": 6016,
      "24/6": 6017,
      "tuỷ": 6018,
      "Sửu": 6019,
      "massage": 6020,
      "vầy": 6021,
      "trót": 6022,
      "Hyun": 6023,
      "Chevrolet": 6024,
      "shop": 6025,
      "Mac": 6026,
      "TQĐT": 6027,
      "2011-2016": 6028,
      "Baoquangngai": 6029,
      "Rượu": 6030,
      "đố": 6031,
      "bấ": 6032,
      "210": 6033,
      "VIB": 6034,
      "##bottom": 6035,
      "BVTV": 6036,
      "Bali": 6037,
      "Khổ": 6038,
      "Quyến": 6039,
      "Motor": 6040,
      "##va": 6041,
      "me": 6042,
      "khóm": 6043,
      "4-0": 6044,
      "Mâu": 6045,
      "11/9": 6046,
      "sục": 6047,
      "2,6": 6048,
      "##tin": 6049,
      "Netanyahu": 6050,
      "QR": 6051,
      "khuấy": 6052,
      "##is": 6053,
      "LĐLĐVN": 6054,
      "31/8": 6055,
      "Mart": 6056,
      "Cừ": 6057,
      "cộ": 6058,
      "##ần": 6059,
      "26/9": 6060,
      "Giấ": 6061,
      "123": 6062,
      "dăm": 6063,
      "Mohamed": 6064,
      "mỉm": 6065,
      "Mo": 6066,
      "rơ": 6067,
      "##VT": 6068,
      "TMĐT": 6069,
      "xiết": 6070,
      "Banking": 6071,
      "##/8/2018": 6072,
      "20/9": 6073,
      "BVĐK": 6074,
      "Ji": 6075,
      "28/8": 6076,
      "##out": 6077,
      "118": 6078,
      "le": 6079,
      "Rodrigo": 6080,
      "5/6": 6081,
      "Đo": 6082,
      "metro": 6083,
      "Sung": 6084,
      "1971": 6085,
      "Nét": 6086,
      "2.5": 6087,
      "129": 6088,
      "Bush": 6089,
      "280": 6090,
      "chệc": 6091,
      "view": 6092,
      "Ch": 6093,
      "tràm": 6094,
      "##chắp": 6095,
      "##/6/2019": 6096,
      "Danang": 6097,
      "ICT": 6098,
      "Ocean": 6099,
      "futsal": 6100,
      "Họp": 6101,
      "19/8": 6102,
      "##ật": 6103,
      "6-3": 6104,
      "Modi": 6105,
      "mịt": 6106,
      "##/01/2019": 6107,
      "trô": 6108,
      "Gaal": 6109,
      "phai": 6110,
      "hân": 6111,
      "2016-2017": 6112,
      "quăng": 6113,
      "bợ": 6114,
      "106": 6115,
      "OLED": 6116,
      "buô": 6117,
      "cuốc": 6118,
      "27/6": 6119,
      "HO": 6120,
      "##name": 6121,
      "16/9": 6122,
      "Giuộc": 6123,
      "Thâ": 6124,
      "át": 6125,
      "22%": 6126,
      "VIP": 6127,
      "##ải": 6128,
      "##người": 6129,
      "casino": 6130,
      "nhối": 6131,
      "nhả": 6132,
      "Bom": 6133,
      "Nick": 6134,
      "chơ": 6135,
      "##về": 6136,
      "2,8": 6137,
      "Mèo": 6138,
      "31/7": 6139,
      "26/7": 6140,
      "Bồi": 6141,
      "Thuyền": 6142,
      "18.000": 6143,
      "1965": 6144,
      "support": 6145,
      "26/6": 6146,
      "vơi": 6147,
      "vuốt": 6148,
      "rỗng": 6149,
      "Thập": 6150,
      "múc": 6151,
      "##55": 6152,
      "Blue": 6153,
      "Gareth": 6154,
      "sạp": 6155,
      "7/8": 6156,
      "25/6": 6157,
      "r": 6158,
      "Williams": 6159,
      "##-2019": 6160,
      "Gateway": 6161,
      "Tận": 6162,
      "Mosul": 6163,
      "dột": 6164,
      "kình": 6165,
      "Quay": 6166,
      "Website": 6167,
      "phượng": 6168,
      "13.000": 6169,
      "20/3": 6170,
      "Thám": 6171,
      "vỏn": 6172,
      "##ốt": 6173,
      "chà": 6174,
      "141": 6175,
      "20/10": 6176,
      "DJ": 6177,
      "House": 6178,
      "Kuwait": 6179,
      "##el": 6180,
      "1.700": 6181,
      "Eric": 6182,
      "4/5": 6183,
      "17/7": 6184,
      "Cướp": 6185,
      "126": 6186,
      "##ngày": 6187,
      "dẫ": 6188,
      "Morning": 6189,
      "UAV": 6190,
      "Bă": 6191,
      "##–": 6192,
      "Lù": 6193,
      "1.100": 6194,
      "Sanh": 6195,
      "##Benz": 6196,
      "270": 6197,
      "quâ": 6198,
      "DS": 6199,
      "rêu": 6200,
      "BĐKH": 6201,
      "Japan": 6202,
      "nhô": 6203,
      "##kíp": 6204,
      "Becamex": 6205,
      "20/8": 6206,
      "Game": 6207,
      "Va": 6208,
      "155": 6209,
      "##/4/2018": 6210,
      "Noo": 6211,
      "109": 6212,
      "21/6": 6213,
      "20/7": 6214,
      "Sù": 6215,
      "4.500": 6216,
      "Masan": 6217,
      "10.0": 6218,
      "sảnh": 6219,
      "JICA": 6220,
      "are": 6221,
      "##di": 6222,
      "##ba": 6223,
      "VinMart": 6224,
      "KL": 6225,
      "mồm": 6226,
      "găng": 6227,
      "25/7": 6228,
      "VAMC": 6229,
      "sáo": 6230,
      "370": 6231,
      "Petro": 6232,
      "Bernabeu": 6233,
      "14.000": 6234,
      "Hill": 6235,
      "lươn": 6236,
      "cau": 6237,
      "7/7": 6238,
      "Made": 6239,
      "##ov": 6240,
      "ID": 6241,
      "gram": 6242,
      "tớ": 6243,
      "Khen": 6244,
      "Quoc": 6245,
      "Music": 6246,
      "4-6": 6247,
      "gu": 6248,
      "TNMT": 6249,
      "138": 6250,
      "Mr": 6251,
      "NHCSXH": 6252,
      "vữa": 6253,
      "sặc": 6254,
      "4-1": 6255,
      "Nhựt": 6256,
      "trướng": 6257,
      "##-4": 6258,
      "117": 6259,
      "2/10": 6260,
      "Phá": 6261,
      "SMS": 6262,
      "##ry": 6263,
      "bướm": 6264,
      "Gã": 6265,
      "VAR": 6266,
      "Sapa": 6267,
      "Thôi": 6268,
      "15/5": 6269,
      "live": 6270,
      "##/01/2018": 6271,
      "Gắn": 6272,
      "Ryan": 6273,
      "26/3": 6274,
      "##ya": 6275,
      "Cột": 6276,
      "Voice": 6277,
      "Vietnamnet": 6278,
      "thiền": 6279,
      "IPO": 6280,
      "yoga": 6281,
      "23/7": 6282,
      "Marco": 6283,
      "Hari": 6284,
      "Brad": 6285,
      "##Trong": 6286,
      "nhỉ": 6287,
      "##Long": 6288,
      "15/3": 6289,
      "Carlos": 6290,
      "6-4": 6291,
      "Dragon": 6292,
      "total": 6293,
      "Chiêu": 6294,
      "TTCP": 6295,
      "khăng": 6296,
      "UN": 6297,
      "riết": 6298,
      "sò": 6299,
      "2,1": 6300,
      "hệt": 6301,
      "nhĩ": 6302,
      "rượt": 6303,
      "Vietravel": 6304,
      "##60": 6305,
      "Alexis": 6306,
      "tă": 6307,
      "111": 6308,
      "Legend": 6309,
      "Qu": 6310,
      "hụi": 6311,
      "Hung": 6312,
      "##rình": 6313,
      "##/10/2019": 6314,
      "146": 6315,
      "Tầng": 6316,
      "cõng": 6317,
      "TI": 6318,
      "##off": 6319,
      "On": 6320,
      "19/7": 6321,
      "96%": 6322,
      "ngáo": 6323,
      "17/8": 6324,
      "thẳm": 6325,
      "sú": 6326,
      "BRT": 6327,
      "oán": 6328,
      "Robot": 6329,
      "Chờ": 6330,
      "Sàn": 6331,
      "Houthi": 6332,
      "Khoảnh": 6333,
      "##Công": 6334,
      "dong": 6335,
      "kali": 6336,
      "cafe": 6337,
      "1,9": 6338,
      "băm": 6339,
      "Series": 6340,
      "khét": 6341,
      "phích": 6342,
      "LB": 6343,
      "##05": 6344,
      "table": 6345,
      "Leo": 6346,
      "nem": 6347,
      "##/2007": 6348,
      "18/7": 6349,
      "Béo": 6350,
      "Nhâ": 6351,
      "cuống": 6352,
      "700.000": 6353,
      "Slam": 6354,
      "đốm": 6355,
      "22/5": 6356,
      "3,6": 6357,
      "mAh": 6358,
      "ĐHQG": 6359,
      "Charles": 6360,
      "Amsterdam": 6361,
      "Table": 6362,
      "29/8": 6363,
      "Khẩu": 6364,
      "tằm": 6365,
      "sảo": 6366,
      "roi": 6367,
      "Hạm": 6368,
      "day": 6369,
      "VNCB": 6370,
      "2-4": 6371,
      "Ty": 6372,
      "Beckham": 6373,
      "31/5": 6374,
      "GCNQSDĐ": 6375,
      "21%": 6376,
      "Sợ": 6377,
      "330": 6378,
      "19/5": 6379,
      "25/9": 6380,
      "10/3": 6381,
      "have": 6382,
      "Lux": 6383,
      "##47": 6384,
      "Live": 6385,
      "Rai": 6386,
      "ỉ": 6387,
      "25/4": 6388,
      "16/8": 6389,
      "##re": 6390,
      "Las": 6391,
      "##/12/2016": 6392,
      "20/2": 6393,
      "start": 6394,
      "55%": 6395,
      "Anthony": 6396,
      "1964": 6397,
      "nạc": 6398,
      "Wang": 6399,
      "trỗi": 6400,
      "tủi": 6401,
      "##trên": 6402,
      "xíu": 6403,
      "##gmail": 6404,
      "chát": 6405,
      "Poroshenko": 6406,
      "kiếp": 6407,
      "Bundesliga": 6408,
      "##/7/2018": 6409,
      "Cameron": 6410,
      "##ntium": 6411,
      "##óng": 6412,
      "##/07/2018": 6413,
      "##67": 6414,
      "##Thương": 6415,
      "Jun": 6416,
      "Lebanon": 6417,
      "XVI": 6418,
      "##parent": 6419,
      "miê": 6420,
      "Photo": 6421,
      "31/10": 6422,
      "Hinh": 6423,
      "##Table": 6424,
      "rạ": 6425,
      "tơi": 6426,
      "múi": 6427,
      "vãi": 6428,
      "27/4": 6429,
      "Harvard": 6430,
      "Stephen": 6431,
      "Bế": 6432,
      "Phê": 6433,
      "Definition": 6434,
      "Volkswagen": 6435,
      "##lband": 6436,
      "Đéc": 6437,
      "UBMTTQ": 6438,
      "go": 6439,
      "dô": 6440,
      "tấc": 6441,
      "Cấn": 6442,
      "húc": 6443,
      "##iều": 6444,
      "##)": 6445,
      "dấn": 6446,
      "##que": 6447,
      "##/2012": 6448,
      "##-30": 6449,
      "hằn": 6450,
      "XSKT": 6451,
      "bái": 6452,
      "##MsoNormal": 6453,
      "12/7": 6454,
      "CMCN": 6455,
      "Marketing": 6456,
      "6/8": 6457,
      "Coca": 6458,
      "MS": 6459,
      "nhúng": 6460,
      "two": 6461,
      "Innova": 6462,
      "##padding": 6463,
      "##priority": 6464,
      "##ce": 6465,
      "No": 6466,
      "##orphan": 6467,
      "Triê": 6468,
      "Bashar": 6469,
      "Lim": 6470,
      "Thuật": 6471,
      "widow": 6472,
      "Ibrahimovic": 6473,
      "##pagin": 6474,
      "nguyền": 6475,
      "hormone": 6476,
      "5/8": 6477,
      "ĐKVĐ": 6478,
      "9/8": 6479,
      "Disney": 6480,
      "Holdings": 6481,
      "##noshow": 6482,
      "Sứ": 6483,
      "2/8": 6484,
      "teo": 6485,
      "1950": 6486,
      "##.2018": 6487,
      "year": 6488,
      "PNJ": 6489,
      "20/6": 6490,
      "Istanbul": 6491,
      "Hawaii": 6492,
      "28/9": 6493,
      "EN": 6494,
      "20/5": 6495,
      "##owband": 6496,
      "2015-2016": 6497,
      "VĐQG": 6498,
      "3/8": 6499,
      "Time": 6500,
      "khinh": 6501,
      "##chi": 6502,
      "Geun": 6503,
      "1/2019": 6504,
      "Your": 6505,
      "##/5/2016": 6506,
      "rát": 6507,
      "phèn": 6508,
      "nôi": 6509,
      "tróc": 6510,
      "đực": 6511,
      "Lược": 6512,
      "9/10": 6513,
      "10/7": 6514,
      "KĐT": 6515,
      "nắn": 6516,
      "homestay": 6517,
      "Eo": 6518,
      "##te": 6519,
      "19/9": 6520,
      "127": 6521,
      "##Assad": 6522,
      "3/7": 6523,
      "##/5/2017": 6524,
      "hất": 6525,
      "Tôm": 6526,
      "##US": 6527,
      "132": 6528,
      "##/2008": 6529,
      "Journal": 6530,
      "3/5": 6531,
      "##sa": 6532,
      "1-5": 6533,
      "##đến": 6534,
      "Ngọn": 6535,
      "Complex": 6536,
      "Tillerson": 6537,
      "cooperation": 6538,
      "mẹo": 6539,
      "NAM": 6540,
      "CCN": 6541,
      "##những": 6542,
      "3,4": 6543,
      "Chim": 6544,
      "hòm": 6545,
      "Đâ": 6546,
      "##ong": 6547,
      "vung": 6548,
      "MacBook": 6549,
      "Mattis": 6550,
      "Southampton": 6551,
      "lút": 6552,
      "16/7": 6553,
      "Tảo": 6554,
      "165": 6555,
      "Jung": 6556,
      "9/9": 6557,
      "##also": 6558,
      "Luỹ": 6559,
      "Khashoggi": 6560,
      "thuyên": 6561,
      "KDC": 6562,
      "kV": 6563,
      "phình": 6564,
      "Island": 6565,
      "6/7": 6566,
      "Hassan": 6567,
      "Kh": 6568,
      "CBCS": 6569,
      "bầy": 6570,
      "Newcastle": 6571,
      "sảng": 6572,
      "5/7": 6573,
      "##đang": 6574,
      "##PTNT": 6575,
      "Nợ": 6576,
      "##/12/2018": 6577,
      "Áng": 6578,
      "HĐBA": 6579,
      "Buriram": 6580,
      "Kem": 6581,
      "Tải": 6582,
      "rôn": 6583,
      "9/5": 6584,
      "France": 6585,
      "rườ": 6586,
      "##/06/2019": 6587,
      "Ole": 6588,
      "1966": 6589,
      "cặn": 6590,
      "Sterling": 6591,
      "nhích": 6592,
      "Miễn": 6593,
      "##rùng": 6594,
      "sói": 6595,
      "Trầm": 6596,
      "4/6": 6597,
      "Bolton": 6598,
      "Jackson": 6599,
      "ngẫm": 6600,
      "tuýp": 6601,
      "Dả": 6602,
      "Cắt": 6603,
      "##tô": 6604,
      "##ằng": 6605,
      "Rouhani": 6606,
      "Triết": 6607,
      "Benzema": 6608,
      "Thy": 6609,
      "Lenovo": 6610,
      "##Dĩ": 6611,
      "31/3": 6612,
      "sạ": 6613,
      "28/7": 6614,
      "Trảng": 6615,
      "Boris": 6616,
      "6/9": 6617,
      "##/10/2016": 6618,
      "4/10": 6619,
      "tỳ": 6620,
      "22/8": 6621,
      "Tiêm": 6622,
      "Hiên": 6623,
      "23/8": 6624,
      "GI": 6625,
      "14/6": 6626,
      "##iếp": 6627,
      "##ie": 6628,
      "Frank": 6629,
      "dí": 6630,
      "22/7": 6631,
      "##no": 6632,
      "24/9": 6633,
      "Guinea": 6634,
      "Luxury": 6635,
      "KTNN": 6636,
      "Mohammed": 6637,
      "0-2": 6638,
      "Vin": 6639,
      "17/9": 6640,
      "DK": 6641,
      "4/4": 6642,
      "livestream": 6643,
      "dolore": 6644,
      "2/5": 6645,
      "Smith": 6646,
      "Telecom": 6647,
      "Vios": 6648,
      "vảy": 6649,
      "Đư": 6650,
      "##án": 6651,
      "15/10": 6652,
      "8/7": 6653,
      "Khát": 6654,
      "##Qaeda": 6655,
      "14/9": 6656,
      "TTTM": 6657,
      "Petersburg": 6658,
      "28/2": 6659,
      "##Internet": 6660,
      "6/6": 6661,
      "Hố": 6662,
      "bịa": 6663,
      "27/9": 6664,
      "Marina": 6665,
      "0,5%": 6666,
      "Shophouse": 6667,
      "Xoài": 6668,
      "10/8": 6669,
      "##/2011": 6670,
      "Trùng": 6671,
      "1/1/2018": 6672,
      "Mall": 6673,
      "11/7": 6674,
      "TNXP": 6675,
      "ngợp": 6676,
      "##/6/2016": 6677,
      "PTĐT": 6678,
      "MiG": 6679,
      "TM": 6680,
      "##/8/2017": 6681,
      "##La": 6682,
      "Modric": 6683,
      "172": 6684,
      "QU": 6685,
      "Shop": 6686,
      "14/5": 6687,
      "hốc": 6688,
      "13/8": 6689,
      "15/4": 6690,
      "145": 6691,
      "rậm": 6692,
      "nhoà": 6693,
      "he": 6694,
      "Truyện": 6695,
      "##từ": 6696,
      "giâ": 6697,
      "27/8": 6698,
      "nấc": 6699,
      "lẩu": 6700,
      "TTCK": 6701,
      "##trick": 6702,
      "3/10": 6703,
      "ngút": 6704,
      "IPU": 6705,
      "hắt": 6706,
      "##CH": 6707,
      "cừu": 6708,
      "##/4/2019": 6709,
      "##ga": 6710,
      "7/10": 6711,
      "Azerbaijan": 6712,
      "10-15": 6713,
      "Muangthong": 6714,
      "Auto": 6715,
      "Kang": 6716,
      "GRDP": 6717,
      "ôxy": 6718,
      "đong": 6719,
      "PCA": 6720,
      "que": 6721,
      "ĐV": 6722,
      "River": 6723,
      "Kenya": 6724,
      "VIC": 6725,
      "14/8": 6726,
      "21/4": 6727,
      "Medvedev": 6728,
      "Luông": 6729,
      "25/11": 6730,
      "General": 6731,
      "mè": 6732,
      "nách": 6733,
      "Suy": 6734,
      "##ho": 6735,
      "25/8": 6736,
      "19%": 6737,
      "121": 6738,
      "chổi": 6739,
      "23%": 6740,
      "##ko": 6741,
      "Love": 6742,
      "##st": 6743,
      "11.0": 6744,
      "##iam": 6745,
      "tít": 6746,
      "bẹp": 6747,
      "TNCN": 6748,
      "Đâu": 6749,
      "KCNA": 6750,
      "##nam": 6751,
      "Tiê": 6752,
      "hoă": 6753,
      "18/5": 6754,
      "Đán": 6755,
      "mướt": 6756,
      "18/8": 6757,
      "##Explorer": 6758,
      "Ko": 6759,
      "5/5": 6760,
      "Chà": 6761,
      "134": 6762,
      "Khiết": 6763,
      "Trào": 6764,
      "981": 6765,
      "HI": 6766,
      "development": 6767,
      "##đầu": 6768,
      "##0%": 6769,
      "xỉn": 6770,
      "1962": 6771,
      "4,3": 6772,
      "hecta": 6773,
      "yen": 6774,
      "Hanh": 6775,
      "Visa": 6776,
      "chôm": 6777,
      "HNMO": 6778,
      "Camry": 6779,
      "Wimbledon": 6780,
      "Mon": 6781,
      "##hắp": 6782,
      "Thung": 6783,
      "Đổng": 6784,
      "3/9": 6785,
      "Mozambique": 6786,
      "chao": 6787,
      "1/1": 6788,
      "Đột": 6789,
      "Rác": 6790,
      "nhơ": 6791,
      "You": 6792,
      "PR": 6793,
      "##-24": 6794,
      "Voi": 6795,
      "2/4": 6796,
      "nga": 6797,
      "not": 6798,
      "Ngă": 6799,
      "##52": 6800,
      "Sê": 6801,
      "##Nga": 6802,
      "##/04/2019": 6803,
      "CMC": 6804,
      "29/3": 6805,
      "rợn": 6806,
      "Shin": 6807,
      "##03": 6808,
      "gene": 6809,
      "XHCN": 6810,
      "Đước": 6811,
      "2/7": 6812,
      "Lát": 6813,
      "##CLE": 6814,
      "51%": 6815,
      "tuông": 6816,
      "Jobs": 6817,
      "lợ": 6818,
      "##lin": 6819,
      "Tào": 6820,
      "90.000": 6821,
      "Tesla": 6822,
      "XV": 6823,
      "von": 6824,
      "ĐTO": 6825,
      "kèn": 6826,
      "hích": 6827,
      "Khan": 6828,
      "EPC": 6829,
      "ICTnews": 6830,
      "##ầy": 6831,
      "CPH": 6832,
      "giấm": 6833,
      "Steven": 6834,
      "22/6": 6835,
      "ARTI": 6836,
      "lạng": 6837,
      "12/12": 6838,
      "gôn": 6839,
      "119": 6840,
      "muống": 6841,
      "12/8": 6842,
      "nhoáng": 6843,
      "tễ": 6844,
      "Bày": 6845,
      "16.000": 6846,
      "Tráng": 6847,
      "Ngàn": 6848,
      "Pay": 6849,
      "##90": 6850,
      "Catalonia": 6851,
      "phượt": 6852,
      "29/6": 6853,
      "##ke": 6854,
      "Mario": 6855,
      "##+": 6856,
      "hãnh": 6857,
      "dãi": 6858,
      "29/7": 6859,
      "VCB": 6860,
      "49%": 6861,
      "##năm": 6862,
      "nano": 6863,
      "Oceanbank": 6864,
      "8,5": 6865,
      "##ảm": 6866,
      "penalty": 6867,
      "kiểng": 6868,
      "phen": 6869,
      "Victor": 6870,
      "Joong": 6871,
      "TTATGT": 6872,
      "Đă": 6873,
      "nhác": 6874,
      "14/3": 6875,
      "Giẽ": 6876,
      "Ngắm": 6877,
      "Hu": 6878,
      "yê": 6879,
      "thán": 6880,
      "CD": 6881,
      "6,7%": 6882,
      "Jeff": 6883,
      "##ine": 6884,
      "##w": 6885,
      "Vinasun": 6886,
      "kềnh": 6887,
      "Taxi": 6888,
      "Del": 6889,
      "##KT": 6890,
      "##ion": 6891,
      "24/5": 6892,
      "10/5": 6893,
      "BlackBerry": 6894,
      "12/9": 6895,
      "##-21": 6896,
      "HTV": 6897,
      "20/4": 6898,
      "Thiều": 6899,
      "##DO": 6900,
      "gỉ": 6901,
      "Nhâm": 6902,
      "3-6": 6903,
      "VR": 6904,
      "21/8": 6905,
      "LĐTB": 6906,
      "23/6": 6907,
      "bo": 6908,
      "bitcoin": 6909,
      "thừng": 6910,
      "##-52": 6911,
      "nham": 6912,
      "10/2018": 6913,
      "Loài": 6914,
      "22/9": 6915,
      "Bể": 6916,
      "XX": 6917,
      "Lành": 6918,
      "8/10": 6919,
      "##min": 6920,
      "18/9": 6921,
      "12/4": 6922,
      "nỉ": 6923,
      "vươ": 6924,
      "rồ": 6925,
      "Christian": 6926,
      "4/9": 6927,
      "22/3": 6928,
      "##/9/2019": 6929,
      "GPS": 6930,
      "30/7": 6931,
      "VSIP": 6932,
      "GMS": 6933,
      "##/3/2016": 6934,
      "Tàng": 6935,
      "##/5/2018": 6936,
      "Tuý": 6937,
      "hởi": 6938,
      "15/6": 6939,
      "##-17": 6940,
      "2/6": 6941,
      "Benjamin": 6942,
      "Pitt": 6943,
      "American": 6944,
      "Làn": 6945,
      "nhung": 6946,
      "124": 6947,
      "##ể": 6948,
      "Bò": 6949,
      "BC": 6950,
      "##/11/2015": 6951,
      "rê": 6952,
      "Zimbabwe": 6953,
      "Vé": 6954,
      "15/12": 6955,
      "##ậu": 6956,
      "Bồn": 6957,
      "26/8": 6958,
      "Thuyết": 6959,
      "##Hàn": 6960,
      "nhẹn": 6961,
      "ThS": 6962,
      "Dưa": 6963,
      "rock": 6964,
      "6-1": 6965,
      "31/12": 6966,
      "10/4": 6967,
      "4/8": 6968,
      "giầy": 6969,
      "2010-2015": 6970,
      "Charlie": 6971,
      "1963": 6972,
      "Oppo": 6973,
      "Inc": 6974,
      "##/10/2015": 6975,
      "CAQ": 6976,
      "sài": 6977,
      "VNM": 6978,
      "7/5": 6979,
      "Ferrari": 6980,
      "Bar": 6981,
      "Lỗ": 6982,
      "##ar": 6983,
      "was": 6984,
      "6/10": 6985,
      "18/6": 6986,
      "640": 6987,
      "Enrique": 6988,
      "Re": 6989,
      "mún": 6990,
      "Shark": 6991,
      "##/3/2018": 6992,
      "Khuôn": 6993,
      "Gọi": 6994,
      "Diamond": 6995,
      "vía": 6996,
      "Trừ": 6997,
      "13/9": 6998,
      "##46": 6999,
      "##NN": 7000,
      "sộ": 7001,
      "8/5": 7002,
      "##Theo": 7003,
      "hat": 7004,
      "Jo": 7005,
      "Dr": 7006,
      "Chốt": 7007,
      "29/9": 7008,
      "nhờn": 7009,
      "súp": 7010,
      "7/9": 7011,
      "Ivan": 7012,
      "kiệu": 7013,
      "dẳng": 7014,
      "12/2018": 7015,
      "13/6": 7016,
      "##Z": 7017,
      "ắp": 7018,
      "10/6": 7019,
      "nghêu": 7020,
      "17/5": 7021,
      "##èo": 7022,
      "11/4": 7023,
      "Phnom": 7024,
      "Maritime": 7025,
      "24/3": 7026,
      "30/10": 7027,
      "Chen": 7028,
      "Tâ": 7029,
      "Men": 7030,
      "16/5": 7031,
      "Thiệt": 7032,
      "23/5": 7033,
      "ATVSLĐ": 7034,
      "Porsche": 7035,
      "Khoai": 7036,
      "Roberto": 7037,
      "##as": 7038,
      "21/5": 7039,
      "10/9": 7040,
      "##/06/2018": 7041,
      "Ná": 7042,
      "gọt": 7043,
      "Messenger": 7044,
      "Thuần": 7045,
      "sỉ": 7046,
      "30-4": 7047,
      "cốp": 7048,
      "DOJI": 7049,
      "catwalk": 7050,
      "Vinashin": 7051,
      "Rock": 7052,
      "##huỗi": 7053,
      "Francisco": 7054,
      "Mueller": 7055,
      "9-10": 7056,
      "5/10": 7057,
      "xoang": 7058,
      "LĐTBXH": 7059,
      "##ti": 7060,
      "25/5": 7061,
      "24/4": 7062,
      "Gái": 7063,
      "26/4": 7064,
      "Chuối": 7065,
      "30/5": 7066,
      "Chứ": 7067,
      "nhện": 7068,
      "##4%": 7069,
      "khuy": 7070,
      "vần": 7071,
      "Jesus": 7072,
      "8/11": 7073,
      "21/9": 7074,
      "Shaw": 7075,
      "buồm": 7076,
      "##tis": 7077,
      "ói": 7078,
      "DIFF": 7079,
      "##gov": 7080,
      "Cò": 7081,
      "##j": 7082,
      "piano": 7083,
      "Serena": 7084,
      "##Bộ": 7085,
      "Emirates": 7086,
      "break": 7087,
      "Universe": 7088,
      "Tóm": 7089,
      "Trâ": 7090,
      "##lo": 7091,
      "Cambridge": 7092,
      "9/7": 7093,
      "##hách": 7094,
      "122": 7095,
      "TTĐT": 7096,
      "JCPOA": 7097,
      "Ôn": 7098,
      "content": 7099,
      "365": 7100,
      "24/8": 7101,
      "Bolero": 7102,
      "225": 7103,
      "Đẹp": 7104,
      "cu": 7105,
      "##hye": 7106,
      "6-2": 7107,
      "TCty": 7108,
      "Pokemon": 7109,
      "series": 7110,
      "##,9": 7111,
      "ekip": 7112,
      "Nổ": 7113,
      "nhấ": 7114,
      "Phone": 7115,
      "play": 7116,
      "##/12/2014": 7117,
      "3/2018": 7118,
      "Đu": 7119,
      "Michel": 7120,
      "Data": 7121,
      "21/3": 7122,
      "##TW": 7123,
      "27/3": 7124,
      "test": 7125,
      "won": 7126,
      "Hôn": 7127,
      "mướn": 7128,
      "##ki": 7129,
      "Chicago": 7130,
      "Maguire": 7131,
      "AN": 7132,
      "Yingluck": 7133,
      "Dream": 7134,
      "megapixel": 7135,
      "Rafael": 7136,
      "24%": 7137,
      "3/6": 7138,
      "Thó": 7139,
      "##/9/2017": 7140,
      "1.000.000": 7141,
      "Mạo": 7142,
      "17.000": 7143,
      "Ukraina": 7144,
      "1959": 7145,
      "##mg": 7146,
      "nhú": 7147,
      "Manuel": 7148,
      "Thỉnh": 7149,
      "càphê": 7150,
      "##70": 7151,
      "27/2": 7152,
      "12/5": 7153,
      "##ad": 7154,
      "oi": 7155,
      "vệt": 7156,
      "136": 7157,
      "23/3": 7158,
      "bần": 7159,
      "Gabriel": 7160,
      "##/2/2019": 7161,
      "CLO": 7162,
      "Penh": 7163,
      "ngẩn": 7164,
      "PA": 7165,
      "Pen": 7166,
      "chảnh": 7167,
      "city": 7168,
      "Fan": 7169,
      "Hạc": 7170,
      "Andrew": 7171,
      "Fortuner": 7172,
      "nẻo": 7173,
      "Nishino": 7174,
      "##/3/2019": 7175,
      "Mễ": 7176,
      "Corp": 7177,
      "nhuệ": 7178,
      "Tony": 7179,
      "139": 7180,
      "##BD": 7181,
      "15-20": 7182,
      "hấn": 7183,
      "##J": 7184,
      "Car": 7185,
      "bùi": 7186,
      "bịch": 7187,
      "Chanh": 7188,
      "Oman": 7189,
      "18/3": 7190,
      "Patrick": 7191,
      "Non": 7192,
      "Yu": 7193,
      "White": 7194,
      "sunt": 7195,
      "héc": 7196,
      "##bị": 7197,
      "1/500": 7198,
      "nao": 7199,
      "khoắn": 7200,
      "##chia": 7201,
      "Sán": 7202,
      "ố": 7203,
      "dolorem": 7204,
      "phất": 7205,
      "ipsa": 7206,
      "Arena": 7207,
      "14/4": 7208,
      "Đèn": 7209,
      "Il": 7210,
      "ĐCSVN": 7211,
      "Full": 7212,
      "Rút": 7213,
      "AT": 7214,
      "oC": 7215,
      "Kelly": 7216,
      "Sốt": 7217,
      "Lạnh": 7218,
      "Lyon": 7219,
      "percent": 7220,
      "nhọ": 7221,
      "Sớm": 7222,
      "giở": 7223,
      "Office": 7224,
      "##khi": 7225,
      "3,7": 7226,
      "8/6": 7227,
      "Hé": 7228,
      "Tae": 7229,
      "Olympia": 7230,
      "Kate": 7231,
      "Ranger": 7232,
      "Fashion": 7233,
      "PCTT": 7234,
      "Jackpot": 7235,
      "khoét": 7236,
      "cồ": 7237,
      "Lin": 7238,
      "Tunisia": 7239,
      "Elizabeth": 7240,
      "1/11": 7241,
      "Don": 7242,
      "huỳnh": 7243,
      "data": 7244,
      "Chrome": 7245,
      "Musk": 7246,
      "oanh": 7247,
      "187": 7248,
      "Noi": 7249,
      "XIX": 7250,
      "##way": 7251,
      "Bơ": 7252,
      "14/7": 7253,
      "IT": 7254,
      "##at": 7255,
      "Đính": 7256,
      "21/7": 7257,
      "Adam": 7258,
      "##/05/2018": 7259,
      "hanh": 7260,
      "khay": 7261,
      "Gỗ": 7262,
      "President": 7263,
      "găm": 7264,
      "click": 7265,
      "17/6": 7266,
      "30/11": 7267,
      "45.000": 7268,
      "##.2019": 7269,
      "càn": 7270,
      "##49": 7271,
      "168": 7272,
      "Rica": 7273,
      "Roger": 7274,
      "VSATTP": 7275,
      "Tắc": 7276,
      "dìu": 7277,
      "ri": 7278,
      "Ju": 7279,
      "1/12": 7280,
      "3,3": 7281,
      "##/4/2017": 7282,
      "vựa": 7283,
      "##ten": 7284,
      "thớt": 7285,
      "##04": 7286,
      "Chì": 7287,
      "Hắn": 7288,
      "BRG": 7289,
      "sả": 7290,
      "26/5": 7291,
      "Brown": 7292,
      "Dây": 7293,
      "1958": 7294,
      "Skripal": 7295,
      "RCEP": 7296,
      "Thận": 7297,
      "6/2018": 7298,
      "trọc": 7299,
      "##BYT": 7300,
      "##ban": 7301,
      "xoè": 7302,
      "Túc": 7303,
      "4,2": 7304,
      "Hamas": 7305,
      "Ngu": 7306,
      "27%": 7307,
      "ĐTVN": 7308,
      "Sẵn": 7309,
      "Đạ": 7310,
      "##za": 7311,
      "NHTM": 7312,
      "Bphone": 7313,
      "Canon": 7314,
      "Nhiê": 7315,
      "Ltd": 7316,
      "##/8/2019": 7317,
      "KP": 7318,
      "hun": 7319,
      "nhàm": 7320,
      "Rolls": 7321,
      "vạt": 7322,
      "850": 7323,
      "Valentine": 7324,
      "made": 7325,
      "##ỡ": 7326,
      "Touch": 7327,
      "3/2019": 7328,
      "Kids": 7329,
      "##unt": 7330,
      "Tayyip": 7331,
      "HSBC": 7332,
      "HSSV": 7333,
      "13/5": 7334,
      "##-6": 7335,
      "##é": 7336,
      "Bruno": 7337,
      "Lumia": 7338,
      "15/11": 7339,
      "mẩu": 7340,
      "THANH": 7341,
      "7/6": 7342,
      "Carter": 7343,
      "Pixel": 7344,
      "Nối": 7345,
      "thỏm": 7346,
      "Hollande": 7347,
      "chội": 7348,
      "30/3": 7349,
      "11/12": 7350,
      "nhạ": 7351,
      "chây": 7352,
      "3.5": 7353,
      "380": 7354,
      "##ùa": 7355,
      "PCT": 7356,
      "1,5%": 7357,
      "Ru": 7358,
      "6/4": 7359,
      "nhớt": 7360,
      "CHXHCN": 7361,
      "9/2018": 7362,
      "133": 7363,
      "Phuc": 7364,
      "Tê": 7365,
      "Town": 7366,
      "University": 7367,
      "duệ": 7368,
      "13/3": 7369,
      "Biden": 7370,
      "131": 7371,
      "chù": 7372,
      "VGP": 7373,
      "6/3": 7374,
      "Dijk": 7375,
      "Che": 7376,
      "Huê": 7377,
      "Lucas": 7378,
      "Chơi": 7379,
      "144": 7380,
      "Residence": 7381,
      "24/10": 7382,
      "truất": 7383,
      "##,5": 7384,
      "Rose": 7385,
      "18/4": 7386,
      "between": 7387,
      "Baltic": 7388,
      "Armenia": 7389,
      "##/12/2015": 7390,
      "Thiền": 7391,
      "28/3": 7392,
      "##/4/2016": 7393,
      "##ner": 7394,
      "bolero": 7395,
      "rông": 7396,
      "28%": 7397,
      "6/2019": 7398,
      "31%": 7399,
      "157": 7400,
      "##vào": 7401,
      "gắp": 7402,
      "19/4": 7403,
      "ATP": 7404,
      "26%": 7405,
      "countries": 7406,
      "Nê": 7407,
      "chat": 7408,
      "Mừ": 7409,
      "10/12": 7410,
      "ABC": 7411,
      "block": 7412,
      "22.000": 7413,
      "AAG": 7414,
      "ngủi": 7415,
      "tanh": 7416,
      "Tủ": 7417,
      "##TM": 7418,
      "16/3": 7419,
      "teen": 7420,
      "Prudential": 7421,
      "29/5": 7422,
      "19/6": 7423,
      "##TC": 7424,
      "2017-2020": 7425,
      "##/11/2013": 7426,
      "##/9/2016": 7427,
      "SSI": 7428,
      "chầu": 7429,
      "##Bến": 7430,
      "Startup": 7431,
      "IP": 7432,
      "2024": 7433,
      "Bolivia": 7434,
      "Perez": 7435,
      "Premium": 7436,
      "##me": 7437,
      "26/10": 7438,
      "##15%": 7439,
      "720": 7440,
      "Bieber": 7441,
      "##vi": 7442,
      "chước": 7443,
      "137": 7444,
      "Thua": 7445,
      "Am": 7446,
      "Donetsk": 7447,
      "28/4": 7448,
      "19/2": 7449,
      "##lanh": 7450,
      "tuồng": 7451,
      "Express": 7452,
      "bủ": 7453,
      "Brent": 7454,
      "Vegas": 7455,
      "Trứng": 7456,
      "trade": 7457,
      "Marc": 7458,
      "vừng": 7459,
      "Somalia": 7460,
      "mậu": 7461,
      "sọc": 7462,
      "Cân": 7463,
      "##or": 7464,
      "nhỉnh": 7465,
      "152": 7466,
      "14/2": 7467,
      "Nhan": 7468,
      "##,6": 7469,
      "Jang": 7470,
      "25/3": 7471,
      "Rover": 7472,
      "vặn": 7473,
      "its": 7474,
      "Infographic": 7475,
      "##Banner": 7476,
      "167": 7477,
      "Đoòng": 7478,
      "Trudeau": 7479,
      "Sir": 7480,
      "3,8": 7481,
      "20/1": 7482,
      "đờn": 7483,
      "11/3": 7484,
      "lép": 7485,
      "##5%": 7486,
      "Nêu": 7487,
      "sữ": 7488,
      "bậy": 7489,
      "Dễ": 7490,
      "4/2019": 7491,
      "23/10": 7492,
      "LHTN": 7493,
      "quậy": 7494,
      "vênh": 7495,
      "hàu": 7496,
      "2-9": 7497,
      "##ề": 7498,
      "##Âu": 7499,
      "256": 7500,
      "Nóng": 7501,
      "29/11": 7502,
      "SC": 7503,
      "Yoga": 7504,
      "nhũ": 7505,
      "13/10": 7506,
      "27/5": 7507,
      "dỏm": 7508,
      "Nhãn": 7509,
      "11/6": 7510,
      "##Hải": 7511,
      "14/11": 7512,
      "##san": 7513,
      "Dan": 7514,
      "17/4": 7515,
      "vali": 7516,
      "Bạ": 7517,
      "their": 7518,
      "Simon": 7519,
      "vế": 7520,
      "AK": 7521,
      "10/11": 7522,
      "2.200": 7523,
      "Food": 7524,
      "Gang": 7525,
      "tợn": 7526,
      "1961": 7527,
      "cẳ": 7528,
      "Guterres": 7529,
      "Korea": 7530,
      "350.000": 7531,
      "Huyên": 7532,
      "ILO": 7533,
      "12/3": 7534,
      "blog": 7535,
      "trầu": 7536,
      "cằn": 7537,
      "We": 7538,
      "3.0": 7539,
      "Francois": 7540,
      "Dell": 7541,
      "ủy": 7542,
      "SAR": 7543,
      "147": 7544,
      "Biện": 7545,
      "Nh": 7546,
      "THI": 7547,
      "Mata": 7548,
      "##26": 7549,
      "pop": 7550,
      "Estonia": 7551,
      "Né": 7552,
      "##Quảng": 7553,
      "##/7/2016": 7554,
      "Đồi": 7555,
      "16/6": 7556,
      "##hăm": 7557,
      "Secret": 7558,
      "chừ": 7559,
      "lỏi": 7560,
      "##ers": 7561,
      "142": 7562,
      "Miên": 7563,
      "SL": 7564,
      "tột": 7565,
      "1-4": 7566,
      "##ại": 7567,
      "19/3": 7568,
      "CGV": 7569,
      "Henry": 7570,
      "CBCNV": 7571,
      "3/2": 7572,
      "##,4": 7573,
      "##DL": 7574,
      "AVG": 7575,
      "6/12": 7576,
      "32%": 7577,
      "##/1": 7578,
      "HH": 7579,
      "vãng": 7580,
      "North": 7581,
      "ATTT": 7582,
      "Party": 7583,
      "Andy": 7584,
      "33%": 7585,
      "##os": 7586,
      "##ring": 7587,
      "11/8": 7588,
      "22/12": 7589,
      "café": 7590,
      "Múa": 7591,
      "22/4": 7592,
      "xuô": 7593,
      "Lion": 7594,
      "It": 7595,
      "##EU": 7596,
      "Nikkei": 7597,
      "Câ": 7598,
      "340": 7599,
      "kén": 7600,
      "11/11": 7601,
      "Khoái": 7602,
      "Loạ": 7603,
      "CNBC": 7604,
      "Luâ": 7605,
      "Cairo": 7606,
      "View": 7607,
      "Sổ": 7608,
      "QNg": 7609,
      "Miện": 7610,
      "phươ": 7611,
      "mào": 7612,
      "5,7": 7613,
      "##con": 7614,
      "BP": 7615,
      "29/4": 7616,
      "ngát": 7617,
      "15/1": 7618,
      "Villas": 7619,
      "##TV": 7620,
      "16/4": 7621,
      "##si": 7622,
      "Hee": 7623,
      "url": 7624,
      "HC": 7625,
      "Ti": 7626,
      "##NHNN": 7627,
      "##se": 7628,
      "Gio": 7629,
      "##/6/2018": 7630,
      "##ty": 7631,
      "Futsal": 7632,
      "Five": 7633,
      "Pence": 7634,
      "Dọc": 7635,
      "phiện": 7636,
      "2/11": 7637,
      "Dybala": 7638,
      "mó": 7639,
      "##ển": 7640,
      "##Tuy": 7641,
      "Philippe": 7642,
      "Cáp": 7643,
      "ATVSTP": 7644,
      "Lazada": 7645,
      "Thuyên": 7646,
      "##Khủng": 7647,
      "23/4": 7648,
      "căm": 7649,
      "420": 7650,
      "Đáy": 7651,
      "Kiểu": 7652,
      "##NQ": 7653,
      "Peskov": 7654,
      "Petrotimes": 7655,
      "28/5": 7656,
      "12/10": 7657,
      "Lỗi": 7658,
      "6/5": 7659,
      "Zhang": 7660,
      "NAFTA": 7661,
      "rìa": 7662,
      "24/11": 7663,
      "gượng": 7664,
      "gameshow": 7665,
      "Phiến": 7666,
      "##đi": 7667,
      "DC": 7668,
      "xù": 7669,
      "##ệ": 7670,
      "##-9": 7671,
      "4/2018": 7672,
      "CTV": 7673,
      "##ưởng": 7674,
      "blockchain": 7675,
      "HoREA": 7676,
      "Busan": 7677,
      "Sát": 7678,
      "9/6": 7679,
      "##sen": 7680,
      "##et": 7681,
      "##hấp": 7682,
      "9/4": 7683,
      "miến": 7684,
      "lõm": 7685,
      "Salman": 7686,
      "chan": 7687,
      "Wan": 7688,
      "cứa": 7689,
      "Fast": 7690,
      "ANH": 7691,
      "29/10": 7692,
      "9,5": 7693,
      "##ja": 7694,
      "##/2006": 7695,
      "17/10": 7696,
      "SXKD": 7697,
      "Chiềng": 7698,
      "##ey": 7699,
      "Vientiane": 7700,
      "##ai": 7701,
      "2035": 7702,
      "##thương": 7703,
      "##ấm": 7704,
      "##88": 7705,
      "##/6/2017": 7706,
      "480": 7707,
      "8/9": 7708,
      "All": 7709,
      "+3": 7710,
      "##54": 7711,
      "khè": 7712,
      "THAAD": 7713,
      "Dừa": 7714,
      "##,7": 7715,
      "1/2018": 7716,
      "1900": 7717,
      "dẫm": 7718,
      "##éo": 7719,
      "5/4": 7720,
      "8/2018": 7721,
      "SBD": 7722,
      "Core": 7723,
      "còng": 7724,
      "##,": 7725,
      "6,7": 7726,
      "##BCT": 7727,
      "##/8/2016": 7728,
      "lốt": 7729,
      "ngót": 7730,
      "##tan": 7731,
      "Lửa": 7732,
      "2014-2015": 7733,
      "Kích": 7734,
      "7/3": 7735,
      "##ley": 7736,
      "guitar": 7737,
      "ốt": 7738,
      "Trai": 7739,
      "162": 7740,
      "Nhanh": 7741,
      "mp": 7742,
      "showroom": 7743,
      "VCS": 7744,
      "26/2": 7745,
      "7/11": 7746,
      "Tháo": 7747,
      "cáu": 7748,
      "cửu": 7749,
      "Cấu": 7750,
      "IBM": 7751,
      "11/10": 7752,
      "Guaido": 7753,
      "sủa": 7754,
      "Vải": 7755,
      "##cc": 7756,
      "Leste": 7757,
      "MSN": 7758,
      "6-8": 7759,
      "##lan": 7760,
      "Tao": 7761,
      "SOM": 7762,
      "xuyến": 7763,
      "lẫm": 7764,
      "lìa": 7765,
      "6/11": 7766,
      "##-14": 7767,
      "Shangri": 7768,
      "Hot": 7769,
      "Silicon": 7770,
      "16/10": 7771,
      "27/10": 7772,
      "##-2009": 7773,
      "##ớt": 7774,
      "Leonardo": 7775,
      "thúng": 7776,
      "##/11/2014": 7777,
      "9/1": 7778,
      "Nhịp": 7779,
      "22/10": 7780,
      "##so": 7781,
      "sụn": 7782,
      "CBRE": 7783,
      "##xi": 7784,
      "##kinh": 7785,
      "tắn": 7786,
      "AIPA": 7787,
      "rúng": 7788,
      "0,3%": 7789,
      "hời": 7790,
      "Sào": 7791,
      "Santa": 7792,
      "GHz": 7793,
      "Mali": 7794,
      "##ến": 7795,
      "Omar": 7796,
      "LCD": 7797,
      "##/3/2017": 7798,
      "Chả": 7799,
      "Vươn": 7800,
      "Hòa": 7801,
      "198": 7802,
      "Vesak": 7803,
      "##ina": 7804,
      "Then": 7805,
      "trailer": 7806,
      "##59": 7807,
      "Telegraph": 7808,
      "Halong": 7809,
      "Dũ": 7810,
      "UV": 7811,
      "NĐT": 7812,
      "vo": 7813,
      "Everest": 7814,
      "Mane": 7815,
      "13/7": 7816,
      "Frankfurt": 7817,
      "CSHS": 7818,
      "nude": 7819,
      "Xperia": 7820,
      "11/2018": 7821,
      "Mary": 7822,
      "MINH": 7823,
      "##/12/2013": 7824,
      "gởi": 7825,
      "Thuấn": 7826,
      "2.400": 7827,
      "quí": 7828,
      "Virginia": 7829,
      "Mar": 7830,
      "Joseph": 7831,
      "mố": 7832,
      "##ji": 7833,
      "Pôn": 7834,
      "3/3": 7835,
      "##Hoa": 7836,
      "17/3": 7837,
      "buốt": 7838,
      "Trống": 7839,
      "McCain": 7840,
      "Hầm": 7841,
      "Art": 7842,
      "Najib": 7843,
      "gút": 7844,
      "##mi": 7845,
      "kh": 7846,
      "##ity": 7847,
      "Taylor": 7848,
      "158": 7849,
      "8/1": 7850,
      "21/12": 7851,
      "đày": 7852,
      "##/7/2019": 7853,
      "xén": 7854,
      "Lamborghini": 7855,
      "##/2005": 7856,
      "more": 7857,
      "est": 7858,
      "dụm": 7859,
      "Phil": 7860,
      "0,2": 7861,
      "Lắc": 7862,
      "Kar": 7863,
      "3/11": 7864,
      "QSDĐ": 7865,
      "khoahocdoisong": 7866,
      "Chỉnh": 7867,
      "##-57": 7868,
      "ISS": 7869,
      "3000": 7870,
      "IELTS": 7871,
      "4/11": 7872,
      "KI": 7873,
      "##ur": 7874,
      "Queen": 7875,
      "##làm": 7876,
      "ren": 7877,
      "sảy": 7878,
      "hòa": 7879,
      "Sergey": 7880,
      "28/11": 7881,
      "##-18": 7882,
      "7/4": 7883,
      "Eurozone": 7884,
      "##0,9%": 7885,
      "11/5": 7886,
      "Roland": 7887,
      "194": 7888,
      "##su": 7889,
      "tennis": 7890,
      "HV": 7891,
      "##tam": 7892,
      "nguôi": 7893,
      "36%": 7894,
      "0-3": 7895,
      "##tel": 7896,
      "Nă": 7897,
      "Bỉnh": 7898,
      "OECD": 7899,
      "##ev": 7900,
      "2.300": 7901,
      "luống": 7902,
      "sùng": 7903,
      "VO": 7904,
      "23/11": 7905,
      "##1,1%": 7906,
      "Thà": 7907,
      "Phán": 7908,
      "##80": 7909,
      "245": 7910,
      "Thảm": 7911,
      "5/3": 7912,
      "##phát": 7913,
      "130.000": 7914,
      "hú": 7915,
      "Jan": 7916,
      "Jim": 7917,
      "Quà": 7918,
      "##/2004": 7919,
      "##ẩn": 7920,
      "han": 7921,
      "##/7/2017": 7922,
      "nháy": 7923,
      "Thê": 7924,
      "38%": 7925,
      "TTV": 7926,
      "##ột": 7927,
      "Paulo": 7928,
      "Macau": 7929,
      "khơ": 7930,
      "Pierre": 7931,
      "Khói": 7932,
      "logic": 7933,
      "1-7": 7934,
      "luyến": 7935,
      "For": 7936,
      "19/12": 7937,
      "aut": 7938,
      "Abdul": 7939,
      "##LienVietPostBank": 7940,
      "mách": 7941,
      "Lady": 7942,
      "16/11": 7943,
      "15/2": 7944,
      "##100": 7945,
      "Ngang": 7946,
      "trầ": 7947,
      "PN": 7948,
      "13/11": 7949,
      "Bezos": 7950,
      "Ed": 7951,
      "4-2": 7952,
      "##2,1%": 7953,
      "Coi": 7954,
      "Sint": 7955,
      "Carolina": 7956,
      "SA": 7957,
      "bêtông": 7958,
      "0,2%": 7959,
      "2,9": 7960,
      "##48": 7961,
      "knock": 7962,
      "3,1": 7963,
      "##hần": 7964,
      "dế": 7965,
      "28/12": 7966,
      "niê": 7967,
      "42%": 7968,
      "25/10": 7969,
      "13/4": 7970,
      "Ancelotti": 7971,
      "Widodo": 7972,
      "Tanzania": 7973,
      "##thành": 7974,
      "team": 7975,
      "biếm": 7976,
      "5,2": 7977,
      "##quang": 7978,
      "XVIII": 7979,
      "AEC": 7980,
      "189": 7981,
      "tuồn": 7982,
      "25/2": 7983,
      "Richter": 7984,
      "Heerenveen": 7985,
      "Friday": 7986,
      "Vạc": 7987,
      "Lấp": 7988,
      "Liu": 7989,
      "8-10": 7990,
      "##ậm": 7991,
      "api": 7992,
      "bích": 7993,
      "22/2": 7994,
      "16/1": 7995,
      "Bluetooth": 7996,
      "cốm": 7997,
      "Tra": 7998,
      "Raul": 7999,
      "Elo": 8000,
      "Baghdad": 8001,
      "26/11": 8002,
      "##thi": 8003,
      "lùn": 8004,
      "##đối": 8005,
      "##pu": 8006,
      "VTVcab": 8007,
      "24-27": 8008,
      "Web": 8009,
      "Tech": 8010,
      "25/12": 8011,
      "Cienco": 8012,
      "suyễn": 8013,
      "re": 8014,
      "ngửi": 8015,
      "Aubameyang": 8016,
      "##CT": 8017,
      "quẹt": 8018,
      "Trứ": 8019,
      "5/2018": 8020,
      "4,8": 8021,
      "9/11": 8022,
      "Gomez": 8023,
      "nylon": 8024,
      "12/2017": 8025,
      "6,5%": 8026,
      "xy": 8027,
      "Paraguay": 8028,
      "People": 8029,
      "##tech": 8030,
      "10/1": 8031,
      "21/2": 8032,
      "Xoá": 8033,
      "Bun": 8034,
      "5/12": 8035,
      "cưỡi": 8036,
      "##/1/2017": 8037,
      "7/1": 8038,
      "##38": 8039,
      "gạ": 8040,
      "Chiên": 8041,
      "Bhutan": 8042,
      "4,7": 8043,
      "Nhựa": 8044,
      "Haiti": 8045,
      "PTTH": 8046,
      "153": 8047,
      "Pi": 8048,
      "hờ": 8049,
      "Latin": 8050,
      "UNICEF": 8051,
      "Boston": 8052,
      "##tra": 8053,
      "##02": 8054,
      "Đổ": 8055,
      "insulin": 8056,
      "##;": 8057,
      "Maldives": 8058,
      "Insider": 8059,
      "Finance": 8060,
      "148": 8061,
      "Pin": 8062,
      "Bọn": 8063,
      "Ngươ": 8064,
      "Rex": 8065,
      "CTCK": 8066,
      "##ời": 8067,
      "##iện": 8068,
      "##âm": 8069,
      "quệ": 8070,
      "sải": 8071,
      "app": 8072,
      "Tha": 8073,
      "Francis": 8074,
      "4/3": 8075,
      "171": 8076,
      "##bank": 8077,
      "##,8": 8078,
      "Carina": 8079,
      "Organic": 8080,
      "SDF": 8081,
      "Măng": 8082,
      "##ã": 8083,
      "ỷ": 8084,
      "Kyrgyzstan": 8085,
      "NTD": 8086,
      "nhếc": 8087,
      "Triệt": 8088,
      "##300": 8089,
      "Ngoan": 8090,
      "##illo": 8091,
      "xịn": 8092,
      "biếng": 8093,
      "Sim": 8094,
      "143": 8095,
      "cữu": 8096,
      "12/11": 8097,
      "##ích": 8098,
      "nái": 8099,
      "Dục": 8100,
      "ắc": 8101,
      "mu": 8102,
      "Trục": 8103,
      "rọ": 8104,
      "11/2017": 8105,
      "Bruyne": 8106,
      "Nghỉ": 8107,
      "PVF": 8108,
      "Kiện": 8109,
      "Củng": 8110,
      "dolor": 8111,
      "##pa": 8112,
      "Kéo": 8113,
      "VKSNDTC": 8114,
      "doping": 8115,
      "##gi": 8116,
      "Vò": 8117,
      "##CV": 8118,
      "investment": 8119,
      "IN": 8120,
      "##Royce": 8121,
      "sed": 8122,
      "hễ": 8123,
      "enim": 8124,
      "Masters": 8125,
      "lênh": 8126,
      "##ây": 8127,
      "18/10": 8128,
      "hũ": 8129,
      "new": 8130,
      "180.000": 8131,
      "Porto": 8132,
      "tép": 8133,
      "Soi": 8134,
      "aliqua": 8135,
      "Summit": 8136,
      "status": 8137,
      "xới": 8138,
      "HPG": 8139,
      "1-6": 8140,
      "Mu": 8141,
      "ụ": 8142,
      "290": 8143,
      "Safari": 8144,
      "Alves": 8145,
      "10-11": 8146,
      "4/1": 8147,
      "5/1": 8148,
      "veli": 8149,
      "Marvel": 8150,
      "61%": 8151,
      "phui": 8152,
      "##ô": 8153,
      "Cheng": 8154,
      "Trích": 8155,
      "ĐTDĐ": 8156,
      "Nén": 8157,
      "##'": 8158,
      "27/11": 8159,
      "##ội": 8160,
      "18/2": 8161,
      "Melbourne": 8162,
      "Source": 8163,
      "##hằng": 8164,
      "VHNT": 8165,
      "people": 8166,
      "2/2019": 8167,
      "CBCC": 8168,
      "1956": 8169,
      "##-10": 8170,
      "Him": 8171,
      "##32": 8172,
      "##han": 8173,
      "##-50": 8174,
      "Sanders": 8175,
      "Kroos": 8176,
      "10-12": 8177,
      "Tiger": 8178,
      "Marcelo": 8179,
      "Nấm": 8180,
      "Album": 8181,
      "##/5/2014": 8182,
      "##kira": 8183,
      "sùi": 8184,
      "Brand": 8185,
      "QG": 8186,
      "##dantri": 8187,
      "##iệm": 8188,
      "Pedro": 8189,
      "Anfield": 8190,
      "94%": 8191,
      "##du": 8192,
      "tab": 8193,
      "opmart": 8194,
      "RS": 8195,
      "Design": 8196,
      "##edu": 8197,
      "visit": 8198,
      "GE": 8199,
      "6/1": 8200,
      "bon": 8201,
      "hổi": 8202,
      "##/1/2019": 8203,
      "mửa": 8204,
      "Gas": 8205,
      "gớm": 8206,
      "Emerald": 8207,
      "2.2": 8208,
      "câm": 8209,
      "156": 8210,
      "93%": 8211,
      "Giếng": 8212,
      "Vơ": 8213,
      "rầy": 8214,
      "Say": 8215,
      "margin": 8216,
      "does": 8217,
      "##/2018": 8218,
      "21/11": 8219,
      "Basel": 8220,
      "2,5%": 8221,
      "SK": 8222,
      "Thả": 8223,
      "##44": 8224,
      "Hapro": 8225,
      "mazut": 8226,
      "thét": 8227,
      "18/1": 8228,
      "34%": 8229,
      "7-6": 8230,
      "Marriott": 8231,
      "GCN": 8232,
      "##one": 8233,
      "1/2017": 8234,
      "VNR": 8235,
      "##xe": 8236,
      "you": 8237,
      "ruốc": 8238,
      "gỏi": 8239,
      "xóc": 8240,
      "1/1/2019": 8241,
      "Carl": 8242,
      "că": 8243,
      "Dụng": 8244,
      "Pasteur": 8245,
      "STEM": 8246,
      "tót": 8247,
      "##321": 8248,
      "Sarah": 8249,
      "bỡ": 8250,
      "Alpha": 8251,
      "dẻ": 8252,
      "country": 8253,
      "QCVN": 8254,
      "Ligt": 8255,
      "his": 8256,
      "Senegal": 8257,
      "##format": 8258,
      "201": 8259,
      "Lewandowski": 8260,
      "23/2": 8261,
      "7/12": 8262,
      "tablet": 8263,
      "Papua": 8264,
      "Firmino": 8265,
      "Ya": 8266,
      "##.2016": 8267,
      "2045": 8268,
      "Viêng": 8269,
      "Samson": 8270,
      "Simeone": 8271,
      "Mahathir": 8272,
      "Diêm": 8273,
      "micro": 8274,
      "0,1%": 8275,
      "it": 8276,
      "hươu": 8277,
      "khẽ": 8278,
      "Savills": 8279,
      "TASS": 8280,
      "nà": 8281,
      "Type": 8282,
      "Valverde": 8283,
      "hẫng": 8284,
      "Sing": 8285,
      "IPv": 8286,
      "5/2019": 8287,
      "bưng": 8288,
      "MI": 8289,
      "14/1": 8290,
      "5.500": 8291,
      "10/2017": 8292,
      "6,2": 8293,
      "##ru": 8294,
      "Lắ": 8295,
      "hẻo": 8296,
      "vút": 8297,
      "Chẩ": 8298,
      "##ney": 8299,
      "1.8": 8300,
      "19/11": 8301,
      "nặn": 8302,
      "đùn": 8303,
      "JW": 8304,
      "188": 8305,
      "##như": 8306,
      "cừ": 8307,
      "this": 8308,
      "nom": 8309,
      "##phải": 8310,
      "ABS": 8311,
      "22/11": 8312,
      "43%": 8313,
      "Ram": 8314,
      "Dani": 8315,
      "Tạng": 8316,
      "20-30": 8317,
      "hack": 8318,
      "xố": 8319,
      "kền": 8320,
      "Kaspersky": 8321,
      "Quới": 8322,
      "dát": 8323,
      "##bán": 8324,
      "##hai": 8325,
      "##cha": 8326,
      "Peugeot": 8327,
      "điếc": 8328,
      "##iệc": 8329,
      "2.600": 8330,
      "Anna": 8331,
      "Hugo": 8332,
      "Khâm": 8333,
      "17/11": 8334,
      "gờm": 8335,
      "FAX": 8336,
      "Nhai": 8337,
      "Maroc": 8338,
      "omega": 8339,
      "Watford": 8340,
      "Nương": 8341,
      "var": 8342,
      "##which": 8343,
      "TKCN": 8344,
      "##,2": 8345,
      "PTO": 8346,
      "Mộng": 8347,
      "1.6": 8348,
      "browser": 8349,
      "##Tháp": 8350,
      "BAN": 8351,
      "Santos": 8352,
      "Davis": 8353,
      "Michelle": 8354,
      "náu": 8355,
      "lố": 8356,
      "##-2008": 8357,
      "20/12": 8358,
      "Herrera": 8359,
      "VASEP": 8360,
      "rầu": 8361,
      "7/2018": 8362,
      "bở": 8363,
      "##chỉ": 8364,
      "TPCN": 8365,
      "Sôi": 8366,
      "174": 8367,
      "Hormuz": 8368,
      "Warren": 8369,
      "4-3": 8370,
      "Loa": 8371,
      "organic": 8372,
      "Ligue": 8373,
      "mướp": 8374,
      "Già": 8375,
      "##thu": 8376,
      "lim": 8377,
      "Xuyến": 8378,
      "nhưỡng": 8379,
      "Sochi": 8380,
      "##Liên": 8381,
      "Ne": 8382,
      "tía": 8383,
      "Uni": 8384,
      "Number": 8385,
      "##thực": 8386,
      "185": 8387,
      "##68": 8388,
      "##tông": 8389,
      "##ard": 8390,
      "derby": 8391,
      "Beauty": 8392,
      "radio": 8393,
      "Credit": 8394,
      "##/1/2018": 8395,
      "Dành": 8396,
      "151": 8397,
      "SM": 8398,
      "India": 8399,
      "14/12": 8400,
      "ab": 8401,
      "Vẽ": 8402,
      "Antoine": 8403,
      "8/4": 8404,
      "bói": 8405,
      "7/2019": 8406,
      "2020-2021": 8407,
      "Luang": 8408,
      "##/2020": 8409,
      "1946": 8410,
      "##ợc": 8411,
      "5,6": 8412,
      "##83": 8413,
      "huân": 8414,
      "HĐ": 8415,
      "CNCH": 8416,
      "Fair": 8417,
      "Dừng": 8418,
      "Mao": 8419,
      "SHTT": 8420,
      "héo": 8421,
      "0,4%": 8422,
      "Vienna": 8423,
      "Bút": 8424,
      "37%": 8425,
      "5/11": 8426,
      "##Các": 8427,
      "19/10": 8428,
      "##ướng": 8429,
      "5000": 8430,
      "POS": 8431,
      "loan": 8432,
      "000": 8433,
      "Congo": 8434,
      "4/12": 8435,
      "##này": 8436,
      "##ợ": 8437,
      "Samdech": 8438,
      "##bo": 8439,
      "Emery": 8440,
      "nháo": 8441,
      "VNG": 8442,
      "Bột": 8443,
      "Venice": 8444,
      "Lotus": 8445,
      "Electronics": 8446,
      "Fernando": 8447,
      "154": 8448,
      "40-50": 8449,
      "23/1": 8450,
      "Fe": 8451,
      "##ak": 8452,
      "Vững": 8453,
      "Aston": 8454,
      "Wayne": 8455,
      "##au": 8456,
      "1955": 8457,
      "SCMP": 8458,
      "đờm": 8459,
      "Ferguson": 8460,
      "Fadil": 8461,
      "gao": 8462,
      "950": 8463,
      "Chè": 8464,
      "##ình": 8465,
      "Jason": 8466,
      "tuất": 8467,
      "Angel": 8468,
      "trợn": 8469,
      "Novak": 8470,
      "##sh": 8471,
      "Kashmir": 8472,
      "##ling": 8473,
      "9/3": 8474,
      "Thươ": 8475,
      "ngò": 8476,
      "92%": 8477,
      "Lake": 8478,
      "176": 8479,
      "LNG": 8480,
      "4/2017": 8481,
      "28/10": 8482,
      "Ngộ": 8483,
      "Marcus": 8484,
      "province": 8485,
      "vò": 8486,
      "Habeco": 8487,
      "18/11": 8488,
      "1930": 8489,
      "##.000.000": 8490,
      "Luke": 8491,
      "Wu": 8492,
      "pa": 8493,
      "Narendra": 8494,
      "Ex": 8495,
      "bai": 8496,
      "Colorado": 8497,
      "Rời": 8498,
      "Của": 8499,
      "Dembele": 8500,
      "Honduras": 8501,
      "Wei": 8502,
      "2/12": 8503,
      "Tồn": 8504,
      "##ãi": 8505,
      "149": 8506,
      "Dưỡng": 8507,
      "##,1": 8508,
      "##ẵng": 8509,
      "Nùng": 8510,
      "KBNN": 8511,
      "217": 8512,
      "570": 8513,
      "##ị": 8514,
      "đản": 8515,
      "AR": 8516,
      "6/2017": 8517,
      "161": 8518,
      "Bung": 8519,
      "yếm": 8520,
      "lă": 8521,
      "Standard": 8522,
      "gù": 8523,
      "Grace": 8524,
      "Heung": 8525,
      "Miguel": 8526,
      "million": 8527,
      "amin": 8528,
      "Nguyện": 8529,
      "Gan": 8530,
      "XL": 8531,
      "Ted": 8532,
      "Đò": 8533,
      "Garros": 8534,
      "Rủ": 8535,
      "Morgan": 8536,
      "##ễm": 8537,
      "bít": 8538,
      "9/2": 8539,
      "SME": 8540,
      "HĐLĐ": 8541,
      "Chấ": 8542,
      "Mỗ": 8543,
      "Morocco": 8544,
      "Khâu": 8545,
      "Nhổn": 8546,
      "##ham": 8547,
      "As": 8548,
      "Landmark": 8549,
      "Riyadh": 8550,
      "##đ": 8551,
      "Chết": 8552,
      "Lèng": 8553,
      "7-10": 8554,
      "Hỷ": 8555,
      "Interpol": 8556,
      "del": 8557,
      "Halloween": 8558,
      "Phìn": 8559,
      "bềnh": 8560,
      "pro": 8561,
      "12/1": 8562,
      "48%": 8563,
      "Asus": 8564,
      "6/2": 8565,
      "Trộ": 8566,
      "beta": 8567,
      "Marie": 8568,
      "Mc": 8569,
      "##be": 8570,
      "MTTQVN": 8571,
      "Edge": 8572,
      "Iniesta": 8573,
      "##/2014": 8574,
      "IDC": 8575,
      "GDTX": 8576,
      "Bó": 8577,
      "Hãn": 8578,
      "Hezbollah": 8579,
      "Cavani": 8580,
      "Gmail": 8581,
      "dượng": 8582,
      "18/12": 8583,
      "11/1": 8584,
      "Chiê": 8585,
      "Java": 8586,
      "##Campuchia": 8587,
      "bu": 8588,
      "Earth": 8589,
      "6,8": 8590,
      "17/1": 8591,
      "##ấn": 8592,
      "Network": 8593,
      "##/2016": 8594,
      "khanh": 8595,
      "British": 8596,
      "Talent": 8597,
      "bùa": 8598,
      "Lôi": 8599,
      "##ius": 8600,
      "bươ": 8601,
      "3-3": 8602,
      "Dài": 8603,
      "Lab": 8604,
      "Salvador": 8605,
      "14/10": 8606,
      "##aque": 8607,
      "Hua": 8608,
      "##ỗi": 8609,
      "##BGDĐT": 8610,
      "si": 8611,
      "##Tây": 8612,
      "THU": 8613,
      "hớ": 8614,
      "Mirror": 8615,
      "tag": 8616,
      "4,6": 8617,
      "Rơi": 8618,
      "23.000": 8619,
      "197": 8620,
      "279": 8621,
      "phốt": 8622,
      "Bob": 8623,
      "Vung": 8624,
      "Caracas": 8625,
      "##line": 8626,
      "RO": 8627,
      "Xà": 8628,
      "Blockchain": 8629,
      "Bournemouth": 8630,
      "##08": 8631,
      "Jay": 8632,
      "Brian": 8633,
      "Win": 8634,
      "photo": 8635,
      "8/12": 8636,
      "Digital": 8637,
      "nhóc": 8638,
      "7,5%": 8639,
      "trẻo": 8640,
      "Vision": 8641,
      "TMV": 8642,
      "hãn": 8643,
      "7,2": 8644,
      "##Cola": 8645,
      "Eurowindow": 8646,
      "inox": 8647,
      "##Tổng": 8648,
      "5,8": 8649,
      "Phe": 8650,
      "##500": 8651,
      "TG": 8652,
      "Giroud": 8653,
      "OS": 8654,
      "Aeon": 8655,
      "concept": 8656,
      "Got": 8657,
      "196": 8658,
      "##/2/2017": 8659,
      "img": 8660,
      "202": 8661,
      "Financial": 8662,
      "Doha": 8663,
      "TCT": 8664,
      "Ghềnh": 8665,
      "ỳ": 8666,
      "0,1": 8667,
      "Doan": 8668,
      "Thang": 8669,
      "19/1": 8670,
      "Kabul": 8671,
      "East": 8672,
      "##/2015": 8673,
      "##KHHGĐ": 8674,
      "1957": 8675,
      "##-27": 8676,
      "7-5": 8677,
      "First": 8678,
      "Pan": 8679,
      "Mini": 8680,
      "Port": 8681,
      "chồn": 8682,
      "##33": 8683,
      "Mkhitaryan": 8684,
      "##đào": 8685,
      "159": 8686,
      "Sin": 8687,
      "##ron": 8688,
      "##po": 8689,
      "tuộc": 8690,
      "TGVN": 8691,
      "rư": 8692,
      "um": 8693,
      "Ken": 8694,
      "Nhuệ": 8695,
      "178": 8696,
      "Mate": 8697,
      "##36": 8698,
      "##ặc": 8699,
      "Smartphone": 8700,
      "CS": 8701,
      "Yoo": 8702,
      "ngớt": 8703,
      "Bridge": 8704,
      "Chanathip": 8705,
      "VIETNAM": 8706,
      "##rập": 8707,
      "Rô": 8708,
      "Grammy": 8709,
      "Abdel": 8710,
      "Thợ": 8711,
      "Eden": 8712,
      "##07": 8713,
      "27/12": 8714,
      "Rakitic": 8715,
      "ZTE": 8716,
      "Haram": 8717,
      "1.2": 8718,
      "khấn": 8719,
      "EUR": 8720,
      "16/12": 8721,
      "TTC": 8722,
      "3/1": 8723,
      "NT": 8724,
      "##InterContinental": 8725,
      "Chùm": 8726,
      "181": 8727,
      "tiếu": 8728,
      "Bếp": 8729,
      "##quốc": 8730,
      "3,5%": 8731,
      "##gan": 8732,
      "##ara": 8733,
      "Dow": 8734,
      "Dụ": 8735,
      "Carnaval": 8736,
      "Torres": 8737,
      "nhõm": 8738,
      "Science": 8739,
      "9/12": 8740,
      "Mil": 8741,
      "ECB": 8742,
      "xui": 8743,
      "##ze": 8744,
      "9/2017": 8745,
      "Lingard": 8746,
      "Sed": 8747,
      "##/10/2013": 8748,
      "5-0": 8749,
      "Lẽ": 8750,
      "1.900": 8751,
      "đay": 8752,
      "Ja": 8753,
      "APPF": 8754,
      "Buffett": 8755,
      "ĐI": 8756,
      "##ếch": 8757,
      "Châm": 8758,
      "3.200": 8759,
      "nhấc": 8760,
      "Ao": 8761,
      "23/12": 8762,
      "110.000": 8763,
      "tuâ": 8764,
      "MXH": 8765,
      "State": 8766,
      "47%": 8767,
      "Etihad": 8768,
      "Vỏ": 8769,
      "vest": 8770,
      "Health": 8771,
      "3/2017": 8772,
      "đáu": 8773,
      "mobile": 8774,
      "##đó": 8775,
      "Cameroon": 8776,
      "flash": 8777,
      "##field": 8778,
      "29%": 8779,
      "16/2": 8780,
      "ĐTM": 8781,
      "Selena": 8782,
      "FDA": 8783,
      "21/1": 8784,
      "CTĐ": 8785,
      "Curacao": 8786,
      "Higuain": 8787,
      "hotline": 8788,
      "voucher": 8789,
      "DM": 8790,
      "52%": 8791,
      "Woo": 8792,
      "mui": 8793,
      "5/2017": 8794,
      "163": 8795,
      "Joko": 8796,
      "177": 8797,
      "##ồi": 8798,
      "Shi": 8799,
      "Hae": 8800,
      "Rằm": 8801,
      "ARV": 8802,
      "Bu": 8803,
      "Tran": 8804,
      "Nào": 8805,
      "13/2": 8806,
      "Ozil": 8807,
      "Project": 8808,
      "home": 8809,
      "430": 8810,
      "01:2": 8811,
      "mả": 8812,
      "Cuông": 8813,
      "đoá": 8814,
      "53%": 8815,
      "##HS": 8816,
      "##/9/2015": 8817,
      "ó": 8818,
      "richter": 8819,
      "mọng": 8820,
      "##orta": 8821,
      "Villarreal": 8822,
      "Renault": 8823,
      "Vidal": 8824,
      "##hi": 8825,
      "##tae": 8826,
      "download": 8827,
      "Fu": 8828,
      "Kardashian": 8829,
      "cp": 8830,
      "##mo": 8831,
      "NBC": 8832,
      "key": 8833,
      "##hen": 8834,
      "suâ": 8835,
      "Gary": 8836,
      "212": 8837,
      "ghềnh": 8838,
      "LTE": 8839,
      "##điều": 8840,
      "25/1": 8841,
      "##ve": 8842,
      "186": 8843,
      "Civic": 8844,
      "Columbia": 8845,
      "ngáy": 8846,
      "46%": 8847,
      "Sanna": 8848,
      "Án": 8849,
      "##65": 8850,
      "##ez": 8851,
      "2/2": 8852,
      "over": 8853,
      "##,3": 8854,
      "sứa": 8855,
      "##CĐ": 8856,
      "lăm": 8857,
      "IAEA": 8858,
      "Kiệm": 8859,
      "Lậ": 8860,
      "41%": 8861,
      "EPS": 8862,
      "Tiếc": 8863,
      "Lopez": 8864,
      "##/2": 8865,
      "##75": 8866,
      "ngoãn": 8867,
      "##hưởng": 8868,
      "##moon": 8869,
      "tề": 8870,
      "Mátxcơva": 8871,
      "166": 8872,
      "NNPTNT": 8873,
      "Minsk": 8874,
      "5-1": 8875,
      "Ron": 8876,
      "xở": 8877,
      "Miami": 8878,
      "##gia": 8879,
      "BST": 8880,
      "thò": 8881,
      "mút": 8882,
      "dặt": 8883,
      "first": 8884,
      "Thuê": 8885,
      "13/1": 8886,
      "160.000": 8887,
      "phộng": 8888,
      "310": 8889,
      "Nations": 8890,
      "Xuan": 8891,
      "School": 8892,
      "Dĩnh": 8893,
      "Nại": 8894,
      "##Phú": 8895,
      "7/2": 8896,
      "lác": 8897,
      "24/12": 8898,
      "17/12": 8899,
      "cằm": 8900,
      "Giỏi": 8901,
      "Raqqa": 8902,
      "##ơng": 8903,
      "##HLB": 8904,
      "Mẹo": 8905,
      "##ju": 8906,
      "đú": 8907,
      "Morrison": 8908,
      "DAP": 8909,
      "25-28": 8910,
      "Motors": 8911,
      "Imperia": 8912,
      "ĐHQGHN": 8913,
      "205": 8914,
      "Maps": 8915,
      "Viktor": 8916,
      "lả": 8917,
      "24.000": 8918,
      "Sisoulith": 8919,
      "Davos": 8920,
      "hửng": 8921,
      "Tripoli": 8922,
      "##ịch": 8923,
      "##/6/2014": 8924,
      "##ee": 8925,
      "Aung": 8926,
      "Bio": 8927,
      "vẹo": 8928,
      "12/2": 8929,
      "##/9/2014": 8930,
      "4/2016": 8931,
      "Hơ": 8932,
      "##ảnh": 8933,
      "bư": 8934,
      "NKT": 8935,
      "##nhà": 8936,
      "26/12": 8937,
      "Water": 8938,
      "Mnuchin": 8939,
      "Technology": 8940,
      "Ôtô": 8941,
      "giẫ": 8942,
      "2-5": 8943,
      "TTVN": 8944,
      "##/7/2015": 8945,
      "Nhượng": 8946,
      "jeans": 8947,
      "Zelensky": 8948,
      "##BXD": 8949,
      "##nhiều": 8950,
      "Latvia": 8951,
      "Total": 8952,
      "Vinatex": 8953,
      "rèm": 8954,
      "##Anh": 8955,
      "Denis": 8956,
      "460": 8957,
      "##27": 8958,
      "SX": 8959,
      "##Class": 8960,
      "##9803": 8961,
      "##NER": 8962,
      "6,3": 8963,
      "Week": 8964,
      "ló": 8965,
      "Jonathan": 8966,
      "EP": 8967,
      "Doji": 8968,
      "OTT": 8969,
      "##/1/2016": 8970,
      "Muôn": 8971,
      "dơ": 8972,
      "phào": 8973,
      "##hiện": 8974,
      "23-26": 8975,
      "DNA": 8976,
      "Giồng": 8977,
      "Maya": 8978,
      "toái": 8979,
      "English": 8980,
      "diêm": 8981,
      "dền": 8982,
      "2/1": 8983,
      "luồn": 8984,
      "Nestlé": 8985,
      "tịnh": 8986,
      "nứa": 8987,
      "##ộ": 8988,
      "Ray": 8989,
      "Mại": 8990,
      "CES": 8991,
      "At": 8992,
      "10,5": 8993,
      "Cười": 8994,
      "CSB": 8995,
      "##09": 8996,
      "Sharapova": 8997,
      "Western": 8998,
      "billion": 8999,
      "##29": 9000,
      "Edward": 9001,
      "Giành": 9002,
      "one": 9003,
      "ngố": 9004,
      "Alan": 9005,
      "Morata": 9006,
      "Húc": 9007,
      "Ahmed": 9008,
      "TRUNG": 9009,
      "SP": 9010,
      "chóc": 9011,
      "12,5": 9012,
      "5/2": 9013,
      "Aaron": 9014,
      "##á": 9015,
      "Buffon": 9016,
      "12/2016": 9017,
      "##ian": 9018,
      "TCVN": 9019,
      "164": 9020,
      "kha": 9021,
      "27/1": 9022,
      "nghĩnh": 9023,
      "gư": 9024,
      "hiu": 9025,
      "##ăng": 9026,
      "Aviv": 9027,
      "##em": 9028,
      "6,1": 9029,
      "##Photo": 9030,
      "179": 9031,
      "GP": 9032,
      "##kin": 9033,
      "bời": 9034,
      "Chơn": 9035,
      "173": 9036,
      "lồi": 9037,
      "natri": 9038,
      "niu": 9039,
      "Cưng": 9040,
      "2.700": 9041,
      "Jerem": 9042,
      "Will": 9043,
      "##/11": 9044,
      "##Thủ": 9045,
      "international": 9046,
      "ĐKXT": 9047,
      "Gruzia": 9048,
      "Thonglo": 9049,
      "Pop": 9050,
      "KV": 9051,
      "##ơ": 9052,
      "Viglacera": 9053,
      "Nhỏ": 9054,
      "Jorge": 9055,
      "Pochettino": 9056,
      "VAMA": 9057,
      "Lênin": 9058,
      "Boko": 9059,
      "Guatemala": 9060,
      "Kyodo": 9061,
      "vén": 9062,
      "DAB": 9063,
      "TMS": 9064,
      "##atus": 9065,
      "##chính": 9066,
      "Happy": 9067,
      "Flores": 9068,
      "##350": 9069,
      "thoi": 9070,
      "Kiêu": 9071,
      "Joon": 9072,
      "##-11": 9073,
      "Fellaini": 9074,
      "uyển": 9075,
      "Se": 9076,
      "11-12": 9077,
      "code": 9078,
      "Đủ": 9079,
      "##28": 9080,
      "BID": 9081,
      "tã": 9082,
      "29/12": 9083,
      "Luka": 9084,
      "8/2017": 9085,
      "##UB": 9086,
      "Philip": 9087,
      "ND": 9088,
      "Nghé": 9089,
      "Garcia": 9090,
      "CÔNG": 9091,
      "golfer": 9092,
      "##ter": 9093,
      "Shah": 9094,
      "##ang": 9095,
      "31/1": 9096,
      "Software": 9097,
      "##-25": 9098,
      "##bin": 9099,
      "BH": 9100,
      "##Trần": 9101,
      "Oezil": 9102,
      "Great": 9103,
      "13/12": 9104,
      "Glass": 9105,
      "##râm": 9106,
      "vằn": 9107,
      "Panasonic": 9108,
      "Sharp": 9109,
      "War": 9110,
      "Nano": 9111,
      "Giác": 9112,
      "##org": 9113,
      "##TN": 9114,
      "lằn": 9115,
      "Ghouta": 9116,
      "Houston": 9117,
      "Potter": 9118,
      "Lăk": 9119,
      "MWG": 9120,
      "6/2016": 9121,
      "##4,2%": 9122,
      "2/2017": 9123,
      "Khaisilk": 9124,
      "Bối": 9125,
      "5,3": 9126,
      "##Capita": 9127,
      "Kị": 9128,
      "##sky": 9129,
      "##bleInPreviewMode": 9130,
      "Habana": 9131,
      "Alzheimer": 9132,
      "oai": 9133,
      "boong": 9134,
      "##den": 9135,
      "Mâ": 9136,
      "##ge": 9137,
      "Tụ": 9138,
      "0,8": 9139,
      "6,4": 9140,
      "Vnexpress": 9141,
      "Iphone": 9142,
      "thày": 9143,
      "30/12": 9144,
      "Security": 9145,
      "Rê": 9146,
      "Night": 9147,
      "Shoigu": 9148,
      "ADMM": 9149,
      "Hongkong": 9150,
      "Martinez": 9151,
      "Lúa": 9152,
      "loà": 9153,
      "Quí": 9154,
      "##TTLT": 9155,
      "liu": 9156,
      "Ong": 9157,
      "7,8": 9158,
      "Chiang": 9159,
      "##BGTVT": 9160,
      "##An": 9161,
      "5,4": 9162,
      "Championship": 9163,
      "302": 9164,
      "Entertainment": 9165,
      "44%": 9166,
      "183": 9167,
      "Athens": 9168,
      "Chèo": 9169,
      "Sướng": 9170,
      "169": 9171,
      "Sập": 9172,
      "TTg": 9173,
      "Burnley": 9174,
      "2.4": 9175,
      "Isco": 9176,
      "Huỷ": 9177,
      "KTTV": 9178,
      "nín": 9179,
      "##ul": 9180,
      "##am": 9181,
      "##thì": 9182,
      "tiệ": 9183,
      "##AN": 9184,
      "6,6": 9185,
      "218": 9186,
      "##CC": 9187,
      "##van": 9188,
      "ICBM": 9189,
      "Saigontourist": 9190,
      "UPCoM": 9191,
      "methanol": 9192,
      "Mến": 9193,
      "body": 9194,
      "##-26": 9195,
      "2016-2018": 9196,
      "10/2": 9197,
      "trớ": 9198,
      "Ross": 9199,
      "RMIT": 9200,
      "Douglas": 9201,
      "##06": 9202,
      "BIM": 9203,
      "3/12": 9204,
      "dơi": 9205,
      "Hoang": 9206,
      "Ôi": 9207,
      "rem": 9208,
      "CIEM": 9209,
      "Chụp": 9210,
      "Jút": 9211,
      "##nk": 9212,
      "Georgia": 9213,
      "SAB": 9214,
      "199": 9215,
      "pixel": 9216,
      "tì": 9217,
      "##8,6%": 9218,
      "195": 9219,
      "Đuống": 9220,
      "Rob": 9221,
      "58%": 9222,
      "##/10/2014": 9223,
      "##việc": 9224,
      "215": 9225,
      "Manhattan": 9226,
      "Patriot": 9227,
      "Micro": 9228,
      "High": 9229,
      "KHHGĐ": 9230,
      "##/3/2015": 9231,
      "CK": 9232,
      "hybrid": 9233,
      "Jon": 9234,
      "##51": 9235,
      "Invest": 9236,
      "Erik": 9237,
      "Tui": 9238,
      "Angola": 9239,
      "ngùng": 9240,
      "1953": 9241,
      "tráo": 9242,
      "lè": 9243,
      "Fanpage": 9244,
      "Siri": 9245,
      "thót": 9246,
      "Buồn": 9247,
      "##7,5%": 9248,
      "3.600": 9249,
      "Cp": 9250,
      "Corporation": 9251,
      "EVNNPC": 9252,
      "collagen": 9253,
      "##ê": 9254,
      "RIA": 9255,
      "##/6/2015": 9256,
      "2.800": 9257,
      "HUD": 9258,
      "choàng": 9259,
      "Hồn": 9260,
      "Ad": 9261,
      "Slovenia": 9262,
      "important": 9263,
      "yểm": 9264,
      "cent": 9265,
      "##yan": 9266,
      "Vay": 9267,
      "labor": 9268,
      "Hoè": 9269,
      "##áy": 9270,
      "26/1": 9271,
      "nhừ": 9272,
      "Blues": 9273,
      "Mohamad": 9274,
      "style": 9275,
      "+1": 9276,
      "Thước": 9277,
      "Hwang": 9278,
      "or": 9279,
      "Bentley": 9280,
      "Abbas": 9281,
      "##/8/2015": 9282,
      "UNDP": 9283,
      "HAG": 9284,
      "hèn": 9285,
      "##HĐND": 9286,
      "Cạn": 9287,
      "En": 9288,
      "nhầy": 9289,
      "Nhiễm": 9290,
      "Ro": 9291,
      "##ran": 9292,
      "21/10": 9293,
      "Vinschool": 9294,
      "Igor": 9295,
      "rocket": 9296,
      "sứt": 9297,
      "time": 9298,
      "21.000": 9299,
      "đấ": 9300,
      "17/2": 9301,
      "##ate": 9302,
      "##ẳng": 9303,
      "height": 9304,
      "all": 9305,
      "Space": 9306,
      "81%": 9307,
      "Miley": 9308,
      "140.000": 9309,
      "HR": 9310,
      "##tiếp": 9311,
      "loang": 9312,
      "##theo": 9313,
      "Walker": 9314,
      "Kennedy": 9315,
      "8/2": 9316,
      "ngốc": 9317,
      "193": 9318,
      "##8%": 9319,
      "Stone": 9320,
      "##đồng": 9321,
      "Swansea": 9322,
      "Guam": 9323,
      "Wave": 9324,
      "##ổi": 9325,
      "11/2": 9326,
      "táp": 9327,
      "Snowden": 9328,
      "Limited": 9329,
      "nhỡ": 9330,
      "giêng": 9331,
      "22/1": 9332,
      "Trá": 9333,
      "##72": 9334,
      "COP": 9335,
      "Nang": 9336,
      "soái": 9337,
      "##lăng": 9338,
      "khít": 9339,
      "##quy": 9340,
      "##uổi": 9341,
      "thau": 9342,
      "nghén": 9343,
      "architect": 9344,
      "##đa": 9345,
      "Wilson": 9346,
      "Vsmart": 9347,
      "nheo": 9348,
      "##ùm": 9349,
      "omni": 9350,
      "hờn": 9351,
      "##200": 9352,
      "Gazprom": 9353,
      "Ashley": 9354,
      "##hu": 9355,
      "lóng": 9356,
      "Recep": 9357,
      "520": 9358,
      "1947": 9359,
      "Nham": 9360,
      "chẻ": 9361,
      "##-29": 9362,
      "57%": 9363,
      "##-500": 9364,
      "ASOSAI": 9365,
      "192": 9366,
      "##detail": 9367,
      "Trú": 9368,
      "Mugabe": 9369,
      "24/1": 9370,
      "3,9": 9371,
      "lạch": 9372,
      "trắm": 9373,
      "nhó": 9374,
      "Avengers": 9375,
      "Vâng": 9376,
      "bèn": 9377,
      "Baby": 9378,
      "cover": 9379,
      "##house": 9380,
      "Andre": 9381,
      "6.5": 9382,
      "##ẫn": 9383,
      "axít": 9384,
      "Andrea": 9385,
      "Ngưu": 9386,
      "##ier": 9387,
      "hon": 9388,
      "pH": 9389,
      "Tuâ": 9390,
      "suông": 9391,
      "ngùn": 9392,
      "Wolves": 9393,
      "##ker": 9394,
      "Free": 9395,
      "777": 9396,
      "incid": 9397,
      "Coco": 9398,
      "390": 9399,
      "MK": 9400,
      "##-90": 9401,
      "VJ": 9402,
      "unde": 9403,
      "Bounnhang": 9404,
      "4,1": 9405,
      "Blade": 9406,
      "QS": 9407,
      "Dã": 9408,
      "Tỏi": 9409,
      "FAT": 9410,
      "##der": 9411,
      "Run": 9412,
      "Market": 9413,
      "tét": 9414,
      "##wa": 9415,
      "325": 9416,
      "Christopher": 9417,
      "##ber": 9418,
      "MBH": 9419,
      "Rùa": 9420,
      "4,5%": 9421,
      "##Lê": 9422,
      "8/2019": 9423,
      "7.500": 9424,
      "540": 9425,
      "##/2017": 9426,
      "DV": 9427,
      "Cua": 9428,
      "##53": 9429,
      "gán": 9430,
      "##io": 9431,
      "Neuer": 9432,
      "55.000": 9433,
      "tourism": 9434,
      "Nova": 9435,
      "nhảm": 9436,
      "Pol": 9437,
      "Committee": 9438,
      "error": 9439,
      "Jet": 9440,
      "0,7": 9441,
      "TNLĐ": 9442,
      "##iểm": 9443,
      "gr": 9444,
      "NCC": 9445,
      "0,6%": 9446,
      "Yết": 9447,
      "PyeongChang": 9448,
      "AQI": 9449,
      "Vinacomin": 9450,
      "bả": 9451,
      "inventor": 9452,
      "Alaska": 9453,
      "Prix": 9454,
      "Sol": 9455,
      "75.000": 9456,
      "ngụt": 9457,
      "Fintech": 9458,
      "xiêm": 9459,
      "PVEP": 9460,
      "VQG": 9461,
      "Team": 9462,
      "2.100": 9463,
      "Koh": 9464,
      "Research": 9465,
      "FAO": 9466,
      "Lồng": 9467,
      "Miu": 9468,
      "ĩ": 9469,
      "##id": 9470,
      "1800": 9471,
      "##iatis": 9472,
      "Lựu": 9473,
      "Fred": 9474,
      "tầ": 9475,
      "sệt": 9476,
      "##ctl": 9477,
      "Pearl": 9478,
      "vớ": 9479,
      "tròng": 9480,
      "440": 9481,
      "Kop": 9482,
      "4,4": 9483,
      "Toronto": 9484,
      "Senkaku": 9485,
      "Bilbao": 9486,
      "aper": 9487,
      "Bella": 9488,
      "Lắp": 9489,
      "iste": 9490,
      "9/2016": 9491,
      "222": 9492,
      "chít": 9493,
      "Nhậm": 9494,
      "15,5": 9495,
      "Jeju": 9496,
      "dicta": 9497,
      "Ramsey": 9498,
      "16,5": 9499,
      "IC": 9500,
      "khoé": 9501,
      "Po": 9502,
      "247": 9503,
      "275": 9504,
      "consequ": 9505,
      "quasi": 9506,
      "##explicab": 9507,
      "accusa": 9508,
      "verita": 9509,
      "lauda": 9510,
      "Vivo": 9511,
      "magna": 9512,
      "chang": 9513,
      "Trác": 9514,
      "39%": 9515,
      "2018-2020": 9516,
      "##-2020": 9517,
      "labore": 9518,
      "thong": 9519,
      "Johnny": 9520,
      "persp": 9521,
      "nực": 9522,
      "Trăm": 9523,
      "##.2015": 9524,
      "Gunnar": 9525,
      "##-1975": 9526,
      "##-7": 9527,
      "Cruise": 9528,
      "##/2003": 9529,
      "Celta": 9530,
      "TTĐB": 9531,
      "Economic": 9532,
      "Soo": 9533,
      "hydro": 9534,
      "st": 9535,
      "0,4": 9536,
      "54%": 9537,
      "Deputy": 9538,
      "Moody": 9539,
      "tùm": 9540,
      "IQ": 9541,
      "HT": 9542,
      "Melania": 9543,
      "Điểu": 9544,
      "6.500": 9545,
      "chùn": 9546,
      "ADS": 9547,
      "PetroTimes": 9548,
      "XVII": 9549,
      "Sarri": 9550,
      "sấm": 9551,
      "##đề": 9552,
      "30/1": 9553,
      "900.000": 9554,
      "##Bank": 9555,
      "share": 9556,
      "Túi": 9557,
      "Vinfast": 9558,
      "ngưởng": 9559,
      "chấu": 9560,
      "Dơi": 9561,
      "##uyên": 9562,
      "Bon": 9563,
      "##320": 9564,
      "Khoang": 9565,
      "##ay": 9566,
      "##ver": 9567,
      "##hênh": 9568,
      "VietNamNet": 9569,
      "##ek": 9570,
      "LPG": 9571,
      "room": 9572,
      "bành": 9573,
      "Jurgen": 9574,
      "Vespa": 9575,
      "##ok": 9576,
      "Surface": 9577,
      "##tham": 9578,
      "Đươ": 9579,
      "Nike": 9580,
      "1500": 9581,
      "Lisbon": 9582,
      "Giày": 9583,
      "tuyền": 9584,
      "high": 9585,
      "chàm": 9586,
      "market": 9587,
      "Jr": 9588,
      "Liban": 9589,
      "xiêu": 9590,
      "##atae": 9591,
      "BB": 9592,
      "điểu": 9593,
      "rít": 9594,
      "##/4/2014": 9595,
      "thụt": 9596,
      "Lạn": 9597,
      "Chanel": 9598,
      "Samuel": 9599,
      "7/2017": 9600,
      "chuốt": 9601,
      "HDV": 9602,
      "Karl": 9603,
      "Stockholm": 9604,
      "##Sau": 9605,
      "##ãng": 9606,
      "##rin": 9607,
      "Yokohama": 9608,
      "##ger": 9609,
      "Mươ": 9610,
      "out": 9611,
      "##,0%": 9612,
      "ngâ": 9613,
      "##/10": 9614,
      "rịch": 9615,
      "Thiệp": 9616,
      "nấp": 9617,
      "56%": 9618,
      "Grande": 9619,
      "Toni": 9620,
      "28/1": 9621,
      "Siu": 9622,
      "BHL": 9623,
      "##baian": 9624,
      "Ultra": 9625,
      "q": 9626,
      "Mát": 9627,
      "##9,6%": 9628,
      "Retail": 9629,
      "CBCCVC": 9630,
      "ẵm": 9631,
      "Eriksen": 9632,
      "oải": 9633,
      "đênh": 9634,
      "TNDN": 9635,
      "ngớ": 9636,
      "Vãn": 9637,
      "##31": 9638,
      "##/12/2012": 9639,
      "PP": 9640,
      "CHK": 9641,
      "ù": 9642,
      "##ới": 9643,
      "Lợn": 9644,
      "XKLĐ": 9645,
      "2/2018": 9646,
      "0,3": 9647,
      "solo": 9648,
      "200%": 9649,
      "nám": 9650,
      "##còn": 9651,
      "Ter": 9652,
      "urani": 9653,
      "Keangnam": 9654,
      "chocolate": 9655,
      "KHÔNG": 9656,
      "Phở": 9657,
      "Vinachem": 9658,
      "Hama": 9659,
      "##ski": 9660,
      "##QG": 9661,
      "Shan": 9662,
      "##39": 9663,
      "19.000": 9664,
      "Matthew": 9665,
      "Quinvaxem": 9666,
      "Chặng": 9667,
      "HNM": 9668,
      "5+1": 9669,
      "Ku": 9670,
      "Tịch": 9671,
      "Sắt": 9672,
      "184": 9673,
      "nẻ": 9674,
      "Vietsovpetro": 9675,
      "Foundation": 9676,
      "xoăn": 9677,
      "##Thanh": 9678,
      "##been": 9679,
      "##ts": 9680,
      "72%": 9681,
      "Logistics": 9682,
      "Nhé": 9683,
      "10/2016": 9684,
      "4/2": 9685,
      "ngạo": 9686,
      "KS": 9687,
      "vồng": 9688,
      "##,75%": 9689,
      "Ohio": 9690,
      "Allegri": 9691,
      "Comey": 9692,
      "Súp": 9693,
      "31/12/2018": 9694,
      "Report": 9695,
      "##jo": 9696,
      "26.000": 9697,
      "##63": 9698,
      "Ronald": 9699,
      "##ục": 9700,
      "2011-2020": 9701,
      "taluy": 9702,
      "##well": 9703,
      "##USD": 9704,
      "Roman": 9705,
      "Dai": 9706,
      "xệ": 9707,
      "Gá": 9708,
      "Nature": 9709,
      "Lính": 9710,
      "mọt": 9711,
      "##89": 9712,
      "##1,8%": 9713,
      "024": 9714,
      "Gamuda": 9715,
      "sớ": 9716,
      "sẫm": 9717,
      "1080": 9718,
      "##ự": 9719,
      "##58": 9720,
      "Abbott": 9721,
      "position": 9722,
      "Kì": 9723,
      "world": 9724,
      "##nhưng": 9725,
      "##Viet": 9726,
      "Pepe": 9727,
      "event": 9728,
      "Ana": 9729,
      "Gen": 9730,
      "Low": 9731,
      "Dị": 9732,
      "Key": 9733,
      "Book": 9734,
      "239": 9735,
      "nhún": 9736,
      "Netflix": 9737,
      "Juncker": 9738,
      "TL": 9739,
      "DVD": 9740,
      "30-40": 9741,
      "Tắm": 9742,
      "Cành": 9743,
      "##Đại": 9744,
      "Donbass": 9745,
      "3/2016": 9746,
      "##/4/2015": 9747,
      "Lung": 9748,
      "Jenner": 9749,
      "Powell": 9750,
      "Ngoạ": 9751,
      "Má": 9752,
      "Alba": 9753,
      "##DS": 9754,
      "##Chủ": 9755,
      "##Thuỷ": 9756,
      "IUU": 9757,
      "BVSC": 9758,
      "đuốc": 9759,
      "Rico": 9760,
      "Fax": 9761,
      "True": 9762,
      "100,000": 9763,
      "TOP": 9764,
      "KHKT": 9765,
      "7-9": 9766,
      "##ử": 9767,
      "quae": 9768,
      "hực": 9769,
      "Phươ": 9770,
      "Asean": 9771,
      "Bền": 9772,
      "lịm": 9773,
      "Ngòi": 9774,
      "CDU": 9775,
      "chòm": 9776,
      "##uống": 9777,
      "67%": 9778,
      "media": 9779,
      "card": 9780,
      "##3,3%": 9781,
      "ươ": 9782,
      "##VP": 9783,
      "mị": 9784,
      "Duma": 9785,
      "##sk": 9786,
      "giậ": 9787,
      "festival": 9788,
      "##ASEAN": 9789,
      "##ậy": 9790,
      "11,5": 9791,
      "9/2015": 9792,
      "Bật": 9793,
      "##).": 9794,
      "economic": 9795,
      "Luxembourg": 9796,
      "Ghana": 9797,
      "Nôm": 9798,
      "lấ": 9799,
      "phả": 9800,
      "Vinaca": 9801,
      "Carlo": 9802,
      "Apollo": 9803,
      "##37": 9804,
      "##1,4%": 9805,
      "diết": 9806,
      "Hart": 9807,
      "Harvey": 9808,
      "60-75": 9809,
      "1,0": 9810,
      "62%": 9811,
      "5,1": 9812,
      "CSXH": 9813,
      "Para": 9814,
      "NSA": 9815,
      "khế": 9816,
      "Mottainai": 9817,
      "host": 9818,
      "204": 9819,
      "Navas": 9820,
      "Coffee": 9821,
      "1.4": 9822,
      "HSG": 9823,
      "mĩ": 9824,
      "rả": 9825,
      "gài": 9826,
      "ngóc": 9827,
      "##HUY": 9828,
      "Heineken": 9829,
      "Oxford": 9830,
      "ngầu": 9831,
      "nòi": 9832,
      "450.000": 9833,
      "Hitler": 9834,
      "Zinedi": 9835,
      "Pique": 9836,
      "WhatsApp": 9837,
      "Dâ": 9838,
      "##able": 9839,
      "229": 9840,
      "5,5%": 9841,
      "vít": 9842,
      "6,8%": 9843,
      "Adrian": 9844,
      "##8,2%": 9845,
      "bặ": 9846,
      "rục": 9847,
      "Tươi": 9848,
      "Golan": 9849,
      "##ẹ": 9850,
      "##hóm": 9851,
      "29/1": 9852,
      "##asco": 9853,
      "BR": 9854,
      "mãng": 9855,
      "7/2016": 9856,
      "Vê": 9857,
      "chày": 9858,
      "Ahmad": 9859,
      "##91": 9860,
      "ắng": 9861,
      "rè": 9862,
      "Kèm": 9863,
      "Nino": 9864,
      "loá": 9865,
      "##66": 9866,
      "7366.49": 9867,
      "uranium": 9868,
      "my": 9869,
      "315": 9870,
      "Shinawatra": 9871,
      "Ngõ": 9872,
      "Ngủ": 9873,
      "Up": 9874,
      "Santiago": 9875,
      "marathon": 9876,
      "##Ninh": 9877,
      "Aires": 9878,
      "Nu": 9879,
      "##era": 9880,
      "##/2/2018": 9881,
      "##áo": 9882,
      "##99": 9883,
      "##arry": 9884,
      "Bún": 9885,
      "Xưa": 9886,
      "Yangon": 9887,
      "PBGDPL": 9888,
      "Vigo": 9889,
      "##IA": 9890,
      "thảy": 9891,
      "1,2%": 9892,
      "##hoạt": 9893,
      "Ruby": 9894,
      "Ngầm": 9895,
      "Điềm": 9896,
      "2013-2014": 9897,
      "mích": 9898,
      "Grai": 9899,
      "OTP": 9900,
      "Award": 9901,
      "##bi": 9902,
      "Michigan": 9903,
      "Start": 9904,
      "biếc": 9905,
      "28.000": 9906,
      "203": 9907,
      "216": 9908,
      "ICC": 9909,
      "##tic": 9910,
      "##ol": 9911,
      "OPPO": 9912,
      "224": 9913,
      "560": 9914,
      "##ting": 9915,
      "##iemsat": 9916,
      "Deir": 9917,
      "cạp": 9918,
      "64%": 9919,
      "4-7": 9920,
      "bim": 9921,
      "Brom": 9922,
      "Arizona": 9923,
      "##TIVE": 9924,
      "ETF": 9925,
      "31/12/2017": 9926,
      "Condotel": 9927,
      "sẩy": 9928,
      "1/1/2017": 9929,
      "265": 9930,
      "rapper": 9931,
      "Is": 9932,
      "Albert": 9933,
      "##-31": 9934,
      "hỉnh": 9935,
      "1/2016": 9936,
      "2026": 9937,
      "years": 9938,
      "ties": 9939,
      "##sự": 9940,
      "Muối": 9941,
      "##đưa": 9942,
      "##thông": 9943,
      "VFC": 9944,
      "12/2015": 9945,
      "ráng": 9946,
[...]
